saved_model_schema_version: 1
meta_graphs {
  meta_info_def {
    stripped_op_list {
      op {
        name: "Add"
        input_arg {
          name: "x"
          type_attr: "T"
        }
        input_arg {
          name: "y"
          type_attr: "T"
        }
        output_arg {
          name: "z"
          type_attr: "T"
        }
        attr {
          name: "T"
          type: "type"
          allowed_values {
            list {
              type: DT_BFLOAT16
              type: DT_HALF
              type: DT_FLOAT
              type: DT_DOUBLE
              type: DT_UINT8
              type: DT_INT8
              type: DT_INT16
              type: DT_INT32
              type: DT_INT64
              type: DT_COMPLEX64
              type: DT_COMPLEX128
              type: DT_STRING
            }
          }
        }
      }
      op {
        name: "Const"
        output_arg {
          name: "output"
          type_attr: "dtype"
        }
        attr {
          name: "value"
          type: "tensor"
        }
        attr {
          name: "dtype"
          type: "type"
        }
      }
      op {
        name: "Identity"
        input_arg {
          name: "input"
          type_attr: "T"
        }
        output_arg {
          name: "output"
          type_attr: "T"
        }
        attr {
          name: "T"
          type: "type"
        }
      }
      op {
        name: "MatMul"
        input_arg {
          name: "a"
          type_attr: "T"
        }
        input_arg {
          name: "b"
          type_attr: "T"
        }
        output_arg {
          name: "product"
          type_attr: "T"
        }
        attr {
          name: "transpose_a"
          type: "bool"
          default_value {
            b: false
          }
        }
        attr {
          name: "transpose_b"
          type: "bool"
          default_value {
            b: false
          }
        }
        attr {
          name: "T"
          type: "type"
          allowed_values {
            list {
              type: DT_BFLOAT16
              type: DT_HALF
              type: DT_FLOAT
              type: DT_DOUBLE
              type: DT_INT32
              type: DT_INT64
              type: DT_COMPLEX64
              type: DT_COMPLEX128
            }
          }
        }
      }
      op {
        name: "Placeholder"
        output_arg {
          name: "output"
          type_attr: "dtype"
        }
        attr {
          name: "dtype"
          type: "type"
        }
        attr {
          name: "shape"
          type: "shape"
          default_value {
            shape {
              unknown_rank: true
            }
          }
        }
      }
    }
    tags: "serve"
    tensorflow_version: "1.13.1"
    tensorflow_git_version: "b\'unknown\'"
  }
  graph_def {
    node {
      name: "input"
      op: "Placeholder"
      attr {
        key: "_output_shapes"
        value {
          list {
            shape {
              dim {
                size: -1
              }
              dim {
                size: 1536
              }
            }
          }
        }
      }
      attr {
        key: "dtype"
        value {
          type: DT_DOUBLE
        }
      }
      attr {
        key: "shape"
        value {
          shape {
            dim {
              size: -1
            }
            dim {
              size: 1536
            }
          }
        }
      }
    }
    node {
      name: "Const"
      op: "Const"
      attr {
        key: "_output_shapes"
        value {
          list {
            shape {
              dim {
                size: 1536
              }
              dim {
                size: 14
              }
            }
          }
        }
      }
      attr {
        key: "dtype"
        value {
          type: DT_DOUBLE
        }
      }
      attr {
        key: "value"
        value {
          tensor {
            dtype: DT_DOUBLE
            tensor_shape {
              dim {
                size: 1536
              }
              dim {
                size: 14
              }
            }
            tensor_content: "\306C\326o\340\326\223?\020\277\341\231\265\306\270?\316P\000\311KI\207\277\220\227\253 \371\377\301\277v\017\032|E<\276\277\341Z\0000\306X\235\277\022\234<\027\361~p?D\223\252\246^~\305?;\245\032\230\276\206\301\277\332\273f\313o\255\275\277\225\371\337T\205q\257?\344l\364\354\365iM?\333p\307\334E\010\304\277Aj6X\256?\275\277\236\217V\305\021|\300??\022\307j\253\030\301?n)\022\372Kf\246?\023\010\201\026\212\243\204\277\244\017\025\200I*\243\277\332k\317\331\036\003\267?\300\334pk\254A\301\277\235y\006\310jR\300?\001 \331\267\276\315\220?\350Y\221w\262K\200\277\024\256_\t\361\311\301?\326H\352h\226\203\260?\0237\325z\351\353\266\277.W\003\312\016g\220\277\327_\265\225\226\353\243\277N\006\376V\262\260\304?^Z\265\276\206\211\253\277\234/\315\345qM\300\277!\r\332-\263\364\221?0x\361O\221\020\261\277\343S\030|\376&\211?\272v\000{\002S\317\277\243\026:\022_\247\273?\3632&\364\360\210\224?\r\027\212\022x\224\246?((UB\235\331\223\277y\374\253\333\277\226\221?\003\004\363(\2270K?\303\370\363\270\302u\263\277&L^.\260\201\261\277\275,\250\263\003\261\251\277i\271I\261LX\261?*\347\232\245\205F\307?,\273}\203\033\251\214\277\2743\371l\037\324\272?\240\022\305\372l\252\247?\366 \300}\247a\312?\2277\227\332\340\004\247?E\327\353\221\215`\274\277\036\235\215K\247C\261\277\361\233\302H\\W\226?\375\270\022\021n\211\316\277\300\273\314!\021;\300\277a\231\255\356\312\375\310?e\306\323\212\213\375\207?\243@\212S\307\226\262\277\201\007r\200x\266\243\2776\355\264\200\224\332\226\277HVA\002\213\372\312?\203EZ3\367\337\266?\036\322\374\370\320\324\306\277D\231?\257b^\177?c\363\365z\363ZX\277\373\242TTS#\303\277\037/r\217\224\242\271\277\301\017\356\343\022\363\263\277\315%\261\213\317\301|\277\005\357\013\260M\010\320?\257^A\360\257V\262?\350f\367!\366?\275?\004\237\311\022\023F\303\277r\305^\300\243\361\300?\217\017*Q\276\201\267?\025x\212\225\343\265\304\277ey\271\324\353\033|?\246wO\244$)\240?\204\335\343\264L\242\257\277\315>y\350\346\314\305?\277\256\335%57\254?\235\024\335+FA\237\277*\244\0329\030\200l\2779\251,w\035\006\302\277\274\010\271\303\233:\236?\'9 3\346-\177?\275\320\177\351xr\302?\037<mds\021\272?ua\353~\371\275\276\277\346@\326\353T\335\227?\235*\031\227\244\006\216\277\353\177k\221\374\361}?\n\233\372Y\255L\301?e\276\364/\354\336\260\277a+U\223\216\202\245?\214\3049\306\377\361\204\277.w\252Q\223\036]\277)G\363%/\212\241?\375\252\342\027E\361\266\277]\200\252\034\302\346p?\3516\266\030\177w\312?|\014\363%\3342\226\277`6So\034\020\245?\212\'\305\377Q\344\272\277K\242]\362\014\335\253?\256\215\274\016\200\307\220?H4\370:\276\332\270?PC@dEW\206\277\237\202n\202m.\240\277\344\204w\3204]\300\277\256\353ZQ\325P\271?\311\210\262p\3524\264\2775#\025\031\262\256\240\277ku\311<\006\315\240\277\311\346\267\260\007/\252\277\t\215B\001\276.\301?\255\020\311\276\026Ay\277\372\t7b2\355\217\277\232\344\303\240F\245\307\277Gs\366_\263\220\253?\333\nA\" lv\277Q\264|\022f\232\245?\037Q\306z\232\324\271\2777\225\343p\230]\244?\371t\226F\035Zb?\267e6\331\306\032\303?\340\205\254\324\313\215\256\277\014U\r\366A\212\317\277\223\'.l\372K\270\277\226\215\020\236\233\017A?n|,W\234B\241?\330\253\022VW&j?\233\200k\303[\323\245\277L{3}J\033\237\277\353\333\214_\010R\225?\025Q\273\364\261S\211?\205b\006\200b\020\260\277tl\350]\342\007\300?Z\244f*\341\025\203?\334+\220#\226\377\271?\305\036\332,\362J\234\277\3632\232dZ[\227\277\0202E\313\230\322\274\277\205\036\235E\306\350\217?!B\354\364\325\301\303?L1\004\252\275\215\237\277\030?5\341\254\373\301\277\'\031\256\240\026\223~\277\217\002\2600\216\232\224?{\336\270\215_\371\272\277?\267\330V\1775\306\277f\200\021F\321\206\225?\303\341\377e/h\232\277\003\\>G\377\\\252?!\307\205\342,\222\255\277!m6\000~\266\223?<(\207\362\004\352\311\277\245\307\010>\257\343\264?\022\361\262\362\261Xs?<\200\362\"\013\223\300?z\2050\350C\260\304?0y\265\r\273\260\225?00\221ICa\271\277Q\3722RL.\252\277\371\036y\034\374\346\272\277\344\320\273\002\374a\225?[\022!>r\250\240\277\213\232&*x\254\237\277\332:\023\321\250W\270?\262S\367\252y\321\266?wQ/\256#\222\247\277\337+\257\226\355R\266?\217\216YI\317\203\241\277G%\322f>c\264\277M]\377\330O\026\300\2771\332\222\345-\304\265?\370\343\333a\346\225\304?o\023\303/O\330\276?\016c\265\225W\211\312?\303\250\230\361p\337|\277\306\315\360\310\372\365\267?\357\252\315\"\016\'\306?\272#[\364\016\251\271\277\013\241\007\023\317\372\273?8! \022(\362\304?n\210\2722\375L\230\277\346#\" \350\004\264\277\203\334Q\343\2455\311\277[\317\t\316\222)\314?p}\206\205\250\242\253\277\362\230\320\224d\347\305\277\205\325\211:zq\274?\322\220\367y\223\356\262\277g\201\021\233\356H\203\277\210{n\310:\034\241\277\356:\024}v\026\262\277\273\221|(\241\232\223\277*z\236m\276\377\203?\033\375a\312\334o\260?FXb\030j\021\306\277\027\260\367>\016\002\320?\246\327\215\255\301\256\244?\002\3201\264}\324\315\277\240\241\326\362\177-\300\277\2610\224#\305i\240\277\350ou\362\304\246\265\277\257l7\'u\326\300\277\234\344\232\233!\230\247\277\001/qDg\317\240?\212D\252\024\375&\272?\220\320_.|\333\262\277\346(pe\'\251\300\277E\300\255X\347s\243\277\377\034\345E\247\237\261?[\204\030\211\216\301\303?\n08\357@\222\250\277\217\267d\213\303x\311\277\225\017\320\352\212\r\227?N1M\233I\244\314?I\242\340N\";\262\277\356\327\034\317o\332\273?\026\016n\342X%\267\277h\211\002\262\336\236\223\277\245!n\033x\222\314?\013\006\353\370\274\025\255\277\000\215\237\300W`\226?V\204\252\256\034]}\277\240\353\232~\314\327&?e\010\205\222\rB\301\277paq\376c\003\305?5aA\254\225\031t\277\242\230\327z\341\017\220\277@e\367\332\302\314\265\277\362\376\313\351\327q\241\277FU\376*\361\"\300\277@\271,\363~\331\244\277\242l\357\202bF\307?x\r\377\301F\377\254?@;;\250&K\263?\235|\243\022J\035q?\'\240\005\020\272!\253\2776\334@\032h\357\245?N_\02423\343\302\277\222u\370ug\240\270?\007\222\224+\216\246\223?\332\253Ns\274b\212\277\261\211\320\310\003\343\202\277]\251\240\016\261\323\276?\236\215\212\n\270\271\300?Q\304\223\246\036\363\300?Wo\331;\227\200\257?\247\375\257\203\002X\255\277\330\310!\006\376B\222?hb\262\231\377\356\272?W\204rt\0378\320\277\201\256>V\336\231\213\277mHi\241V\236\246\277\250>@u\314\266\260\277s\317\251H;\257\270?\335\256i\004y\374\266?\001\262>\373\326\311t\277\301p\002\2409O\313\277\315\300W\253\265\310\264?K\347\234\\\321\006\263?\350\304l(c\021\264\277\031\334R\333\010l\307?\244\364\030\330N\217\225\277\262\312s\267\316\023\271\277\024G%\257\224\306\213?\255\232\215^\374\371\244\277bu!\301\354\361\321\277t\243\2336D\345\260?\303\212\026c\312\330\266??\216\2433)]\237?k\316\014n`J\306?rOS\241\373@\262\277\217\264{n\323\345\323?\354Q\337vA\263\260?\253\374\264\325A\000\254\277\003\002\256\266\304\\\304\277}\232&\'\302\300\270\277\256t\332z\344\362\277?:\210vy\025\223\246?\327\3678>\370!\302\277\202\245\210\036\372\304\271\277\\i\346~\355\327\207\277\"v9\361Nr\263?\205\323c\026\'6\265?E\nG5\034`\257?aX\266JLe\307?\324\217.\223\323f\272\277\234\366\301^\007\001\224?64d\205\3402\220?^\376\022=\233\224\315\277.<}\034e\321\246\277m\323\354\000\335\002\272\277t7\016\265m\346\240?\nFB\307\2644\257\277\013\2667W\023\210i\2770a\310\231A\205\224?\336V\364\372\244x\244\277\266\347\023!I\230\243?#B\3774<\344\250\277\261\347\300Y\371\033\251?\3005/T\370\250\255\277fe\031&lQ\267?\201\033(?\330\335\242?\206\220\372\264\324\257\274?\036X\017Qw\245~?H\301\177\014\320/\305\277\000Y\361\233P\255\263?_\240\022\341Q\000\217\277\262|\206\222\234\025\267?K\256I\276\230\n\310\277S\3749\351\252\220\227?\033 \377\224\227\247\211\277 \214\036\344u\201\307\277H\027\345x\262\300\244\277\220\026\224#n\364\303?\\Q\323\233\375\224\245?\037]!@\376\273w?\024D\2725s(\255?\223\364\307\305\025_\253\277a\352\275`\266z\227?\344,\304\371\357E\305?\373\266cR/N\272\277m\255\213q8sK?r\216\350H\307\242\311?\215S`\'\000\205\227\277\027\210\326\016\236\262\253\277sM<\260rtt?%\220Mt}Q\264?)\252\340\034\2716\247?p\272\"%\334\367\250\2775S\003o\313\240\250?w\324B\360\2212\301\277\374\215\221\332H\222s\277#\264W\r\317\305u\277\322\255\257\314\213\352\265\277Og\201ev\330\227\277\262\306\230\226u~\272?\337\273\177@\034\314\257?F\215U\353\357\037\272\277\323\307V\360T<\266?\0350\304\255o\002\321\277\334\352\301\334P\317\265?\353\333\t\271I\325\264\277\026\016\370\242\243\337n?\350%\033\302\327\310\231?\177\272,<W6\252\277\375}\267\234\246\373\202?b2\265u\375I\235?\356\335\251\010\275\332\322\277$1\332\311gn\301?\257m\327p\220{\264\277\020\251;&ZK\300?\247\177,\340S\036\271?>\224\233\247\222J\244?F\345 \260\243\252\276?\306\010\3153\211\024\261\277\2671\254S\376$\321?\006\244\230o\250\300\300\277D9\305\335l|\276?H{6\n\361\227\261\277\021K\001\225u\323\223\277\247\000S\237I\313\264\277\225m\277\016\264M\225\277\366\262Z\177\244N-\277\356\275 \342\310\304\222\277m\221<\312P\263\264\277S\250\005K\3408\311\277M\350#\014\016c\211\277\t\317}_M9y\277\352\261|a}\022\227\277\243T0\021\026\322\262\277&z\213>\205\365\267?T\273\032\344~9\300?vM\276\207\276Q\255\277\241\250\347\371H\343\244\277\2420\230\233nf\266?+\365(\214,g\311\277\344\303#\304\202\010\263?/TK\311\227]\226?\215u\337\311\330\025\311\277Zp\374\344E^\266?\3075\230\260\302>\245?\342\024s\001U\224\271?W\303\225p3O\251?\0311\033\312+\357\270\277\202\010\337\333\0106\340>\317\321r\312\354\310\273\277\207\336\226=\337O\276\277r\234\266t\253#\247\277\240q\007\342\275K\310\277+\311\247RR\366\265?\t\335\236\216+\034\302?6r\217_\003\237\300?\207\216$#\1775\245\277,&k\202\241\265\316?\244\274$\241\367^\246\277\204\327\305fHj\306?\304\256\223\371t\226\303?\023d\301\351\375^\264\277\256i#\020S\243\237?\205\035\2226\361B\224?6]\237\330\241\220\267\277\265\311O\334d:\251\277\306\366\\\037/\332\266?z\t\036\315b\371\234\277F\317A?\254\322\264\277\254g\310q?\212\276?\332~\025\000\\\345\230\277\236\347\221`|\322\277\277a\320t\211\030\311\233\2777|X\336\356\306\243\277h*\200r\321$\242?\3343{\277\277\205\311?\313\016\345\0361q\300?O\226\245\310\245\343\271?[\213\332p\3248X\277\027\006\361\307Z\225\265?\004\007TA\373!\223\277\3263\\\241G\020\236\277\3578\372\310\303\010\246\277\350\016\345`\022\035\222\277\321S7\3055Z\257\277\373F\326sjg\242?\177\314\220\212\317G\247?\204\t\256\037wo\225\277osg\363wC\267\277\376\250{\246@\330\222?\324\014}\374\r\225\242\277%\331!n3\334\246?\240p\316\005\306U|\277s\027J(\307\370\256?=\274\300=\014\024\222?; l\324\306\264\264\277q\200\035*\216]\243?\027\016G\301\375\\\224?\226\033\270QWm\302?Dt\331\302u1\303?\255\311\025\215\244\300\216?o\211\264\350\272\345S?X`\231:\224YS\277$\226\336}\027 \225\277l\203\265\375\367\306\314\277:2\307\365\014\'\246\277DU\353\224\371[y?\337\3533\232\223\274\251?:\272d\256\364\326\260\277B\326\211S\255\022\207\277=\313\3234<\247\276?+\236\310\263S\'\246?T\030|\305\206\023\304?3T\223H\001\300\325\277\322\216\350\312L\356\233?\362r\247\201\231\251\243\277b\361\177\235\262\244\260?77\326\266\222\027\322?\275\322\356\3358\312\234\277\\J\017\2700\271\264?\036\355\t\0143\010\247\277\264\340\331\300u\230\307?\315\2665)\036x\275\277&\377\275\243\304{\274?4\314B\342\026\010U?5\232j\006\240\230\245\277\270d\367\007\272\020\274?\227\221xzR\316\275\277\027)\361\3176\274\240?X\205\336\261F?\217?\273I\226\227\355\r\301\277y\361tPpz\200?\267f\326\242>\244\277\277\211\214Yinu\270\277\227\324\241\210\362\350\301?\317H\356b\371\347\250\277\327\376\232\325W\345\177?\233U\240\305\025\306\262?;\327\222\353\272 \202\277\200\234\020\226v\271\300?\245,\010\227\267\017\313\277[\320\010m\r\341\204?\214\216\256@\322\026\224\277\255\326t2\001\225\216\277K\223^\234\357j\221?:\354\267\3534\235\243??\001c\245B\331\252\277W\325\350n\034H\274\277\035\224`\003\260+\312\277\372\356S\265\246\377\207?\305\230\231\256\333\203\272\277\316k\035\202\261\037\303?\245\023\241\243\025\315\247?\276\216H{\272\223\301\277gb\355\227\205\034\314?\026N\t\274\303/\300\277\302\275]\353W\301\223?\026\254h\026C4\273\277\261\305\342D\372v\260\277~-\347\301\274h\320?\nj\255\261\027\027\213?\021Vn\025y\201\266\277\326\210e\325\266\373\271\277\254\001d\2455\326\243\277}ut\221G\262\303\277Z^\334Z(}\274?\262\345\177\231\276\357\260\277\0214\324\252\314Y\271?\360\007\337>LL\320\277E\210\016\037u\177\314?+\200\250\342\343i\261\277\261\201\263\3617b\301?\351<\212E\234E\304?\027\325\3337\n\325\312?\014\2363f$\237\250\277\247\327ziu\341\264\277\231N\010$|\263\232\277\355\315\271\200uq\233\277\201R=\004s\200\250\277\001V\334\346\240I\246?\306\021\314\376\034T{\277\243\034\320\"}b\243?%\21470\374+\262\277\277\316\273\005H\217\241?\026_\221\314\212\362\221\277pp\337i/e\304?a\007\374\245g0\241?c\235*]\342h\304\277\"\256\002\216\314\275\301\277L\360u\247\257/\276\277\340 \321Q\262\254\323?\237WwE\034r\221\277\300\274\0138\372\014\262?w\006\222\315\030.\324\277FMI\347\213\263\251?\272l\3424\217\335\304?\37179Rb\200\304\277\010,\313\367\337<\251?;rW\2172\202\300?\000T\245\376ca\230?(r\003\2559P\302\277#|\253F\3666\254?\213j\377n\007\364\264?\304I$\354\211\256\233?\352\232\333\302\271\341\256\277\272b\301\257U\201\313\277\220L\r\315H\250\306\277\007M\313KR\206\267?\352r\256)\017\017\227?LT\300\022\376S\230?):%\332\245\210\315\277\260\202\363\235\236\241\267\277\274\035`\342\304\221\223?G\330\270W;\261\276?\2154\310\374\206T\272?\017\020\220IE\334\302\277g\301\202\260\246\344\271?X+\"\253\\\002\312\277\323{\353\357o+\267?&\257\363\306\032\225z?\335\375\336\352Jj\253?\005}?\023\331\200\262\277\207\213>x\231l\263?\013\235\016mu\030\302\277\367\237u\255\240\177\242?\265\357P\020f\216\315?\365\010\333x6U\263?v\020p\321\201\242\240?)\343@\256\273\240\317\277|_E\315\225R\313?,RE\214\013\272\243\277T\337\244\314\327n`\277&\017W\211\022\377\271\277\354\361\241\035]\341\251?\327\017%\340\n,\241?y\014\246\234?\246\301?(\273\240!\317\002\236?\300k3\330\034\330\246\277rD7\002(N\322?X\030\241\251\357\313\302?\036\363g\034\007\345\264?s@\310tz\334\251?\314\347\374\300Po\306\277\346\250hC7\023\316\277\315\017\222\202;\373\254\277\244\355\237\006\351\334\244?\354\017\007^}}\270?\367\255\330\036\200P\266\277\007\020\001_I\352\243\277|\311_\340/\215\266?\216@g\024\272\311\241?\362W07\274\003\254?\035`\"*\261T\277\277-S\271\241\250e\331\277\224%q\003\344@\240\277\027j\250\2601\341\254\277-\266\232\253\220\312\313?\222At\0179\253\321?\207\247\353\354\260\356\231?7$8\312z\246\220\277\206\010\241\343\260\006\311\277\003\225|\245\014\332\253\277\347\371\364a\330ER\2776\267\206*O`\200?\250\031.4a\243\216?\026\340\365\026\343\233\216?\026\014J\026\344}\203\277\024\200C\n%\331\206?r\324;<\377\321\201?\277\022Im\317}\312?v\031<g.\230i\277\202\353\314Q\032\007\271\277\373\007L\366;\037\267?S\336\305\322\311\265\205?\"\363\314\n\005H\305?\26223\to\023\177\277\222\"T0C\243\305\277\205\341Z\3541G\265?\305\037N{+\331\253\277E\250\326\267\361\030\274?F$\360bn;\265\277\207Z\273\370Q\267\252\277\362c\255\224\347\\\242\277\275\366\373\226\007K\266\277#\346\335\354\355Q\320?\206*\304\226 \014\311\277\032\0200\205\034\372\307\277I\200\016\242\032\306\243?C;\322\244\351W\305?\231h\252\234\312\013\235?\'\246\311\t\227\251\241\277>p\353\270v\346\274?\370_\005\202\223 \250\277\244W$6\310\033\240\277t\034\343>x\034\257?\332piG\325f\270?\251Q\334\'\214\300\234?\240@U\204\335\372\276\277wR\206g\013m\260\277Mt\311\230\0357\225\277\354\022\312;\263c\247\277\346\204%\220\220v\234?*tP\333\331\267\265\277\315\177w\277\315}\266?\367\007\323WP\373\263\277\000\034\n*Z\366\324\277D\272\326\210\326\332{?\235\335Y\010L\215\266?\337\325\024tA\\\302\277\201\320\353C=\252\300?\236\203\" \354\032\265?g}\346\021g\220\210\277x7\234\"\2470\243\277|}\025\201s\007\273\277\212\310\007\263N7\223\277C\220\350\n]B\213\277c\003\351\211m\321\241\277j4r\257\331\227\245?\231\363\206\323\262\025\220?\035G(\333\006\370\273?\234\016V\242\347&\243\277ji\022h\000\266\254\277\367\211\2161\235L\266?}\n\220\376\371\263\272?\253\031\215H\006_\222\2770`\244\367\033\323\253?j5\266@\377\254\270\277r\201)\240\313\213\241\277n\2507\366jB\263? \204C\3534\007\264?\036\221\210\322\202\260\300\277\r:\200\251\003\303\211?\"\245\254\034\317\252\272\277\207tT\000\234P\211?\205\007\230,\031\346\242\277>\2727\303\313\230\243?\016\200\361\343+=\330?\203\234;\307\271Z\311\277\376\r\262D\002U\223?\317\237s\236\372\357\303\277\347\250\200w\307h\260\277\010\025\030\306f\225\303?V\345r\2650;\240\277i\331\363a/\331\202?\363\360\265\312\010\274\300\277\331\332\226\265\353\010\224?\265\332q\034\333n\265?\352~\214\261\206\020\261\277\nC\213D;^\264?\240\272\270\304\037\\\307?\276\344]\270\035\245\320\277\216\204\271\240P\371\325\277\331\221&S2\310\244\277\362g\035,\230\024\270?\314\021i|\017\356\322?\242\346iCcT\231\277WI}B\223W\267?\264e!\272.8\204\277h0\204\337\362c\267\277\250\007sFuw\246\277?f\323>sQ\254?\334mw\014\365\324\210\277\304\230\254A\206\013\236\277!\276\331O\010S\265?\224sihm\340\251\277\250YE\3144>\272\277h\355/\362\317T\251\277L\327\342[\325\027\223\277^\325\ng\331@\270\277iJ\232\004\037H\216\277\324\370$T\2426\265?T!-\266\226*\271\277\251\372I\267,\235\321??!\375PG:\310\277\027\340\t\277\275\022\237\277\316s\'V\353\n\263\277\306Hk1,\227i?\316M\270\342\t\220\263\277\352\020\314\227\305s\220\277\356\257\017>\341M\324\277ig\335}\0047\222\277\255Y\214*m\217\245?\376+\2279\353\202\316\277\305\022\'N\311\240\305\277%ItUF\004\324\277\276X\003l\313\353\266\2771<bK5\"\313\277\017g\203D<t\245\277\\\341\000\337\366\177\272\277quv\036\326\355\251?i\354\352\223\2016\270\277(-\200\004\351\211\277?\251\223\240\346#w\235?\210\222\005-\311$\261\277\360w\343Ak\341\303\277\270\265u\276\367\326\301\277\020x\014\212[;\261\277N\243\312\224;(\256\277\026\236[n$\211\205\277\3716c\214x\013\302\277\324\300\326\033Y\271\315?Xw\254\025\337\006\232\277O\306\357L\264%\260?d\204\022J\006.\326?\371\317l\013o\334\300?\300$\200\30106\251\277\373\315\177\312\226\245\246?TU8S?K\262\277\346X\336\340\370\232\223\277O\276\211\\\2768\301\277\377\010\320\344q\377\276\277|{jh_\307\255\277\021\276?\360EY\207?\260\3722\026o\254\260?F\215#\252\252v\262?\331/\341#\034\217\207?\362\356\250\032\223\320\266\277\237Wf \353\010\312?3\242F\022%\334\302?\213\36621\252G\316\277N\224\366\253\235m\251?\314\215[\323\351lv\277\036\350*\352\253Vw\277^\336\247\317\273$\303\277\304Fm<\343\353\322? -]O\200A\262?M\037\365/\344\235x\277P\267\323\205\3572\275\277\036\227\364\351ds\277?\237E\225\007\224\202\245?\212\246\334\201\346d\256\277\006\320\303\224\333\253\312\277\367\317\354-\331\321\273\277z\372\022\352\212\320[\277Miw\304Ww\271?\201\364\355\313\253\241\277\277\204\022\321f.ue?\354Q\021\221\007\323\277?\267\207\202UX\320\320?\302\303\365\034\240\032\321\277mz\3625\344\023\262?bX\316\265\203e\267?\302\023\r\336\304\274\247?j\240\314\200\360\217\264\277\215\307jN\345f\202?\355(\255\311\272\377\324?\355\005\356\372\337\272\305\277?j;\025z\021\276\277\264B\377\0055\205\310\277MZ\177)\337h\265\277\373\223\377\363\340\357\246?\014\265m\006 \256\254?8&1\375N\252\302?\003\265\244A,W\244?<|/\273\256\027\310\2770\235O\034\252\260\244\277\365\322\237\027c\346\301?R\335d[\333\315\235?\302\204\t\343V\300\273\277\035\354tv\325\204\314\277\272!T\223q\316\263?\017\020\010\341\215\t\272\277\017\213\206Q\016c\274?&t\304\335A!\272?\217P\352\335i%p?\334\351\201y\023J\232\277@\344\374\177J/\242\277/,Q\017\361\"\222\277\036T}\316\203\031\251?\245\337\"U\223\010\225\277\243d\235I\276\033\306\277\237\336\231\240\267l\246\277\024\300\244\232\024p\262\277\314:y\2678\333\254?\2677\370\261\256T\271\277q\034\353\235\373\003\264?9Sd\303\325w\272\277\360+\237uw\006\312?^\005\r\277\264/x\277\235l\242\211\311h\203\277ld[M\232a\201?\227\342/TF\307\243\277o\216\332\300\237\374\246\277\320\014I\206\225(\217?\024\277\344G\314\235\301?MI\2503\234\334\215\277\251x\337\335\330\370\270\277\241\200r\376K\241\312?\335>\206\271<\273\311\277c\005w\321\232Ar\277.n\255lY/\264\277\031d\203_\370\375\302\277\016Y\332=I\215\250?\344\202z\225&\004\306\277\t\203\001 \236\217\261?\220\207\250\224\t\267\274?\270.\017\352\240g\277?\320\350<\313\250x\243\277\320ZNae\241m?\023\037\032\274\374\363\257\277\r\313\t\027\211h\204?\014\3027\254\036Y\307\277\006\227\377HL\274\230\277\027\235@\241\216\277\261\277\250\032yI\017%\245\277M\232)\355\331z\301\277\353_\240\216\031p\264\277P\350r\231\337\227\223\277\362Jn\253\030\223\241?\311\352\002a\004\020\273?JT\363\026Jm\261?\036\016\300\363;\'\312\277\365\331\302\357V\216\321\277W\372\365\320\324<\231?%\242\276\366\202\266\270?H\370\205\310b\034\207\277\333\236\244\230d\030\233?__Oj\342\325\252\277/\252y\214\262:\267?y4\370\204GU\263?\217\350\270f\335\231\246?h\374\315\332A1\271?\300\332\354\352\311\325\275?\025\030d\375#\221\313?\021\354\262\364\210\242\233?G\356!(\317H\257\277\014Ap?\327\310\302?\205\n-\\6\332j\277~JY));\264\277\020\032Cv\024\337\276\277z|~4;v\247\277\016\354L\376C\023\263?\277g5\325\356\'\320?\312\315\260q,\231\262\277\325e\344\2725\212\301?\3312\002\355u\315\247\277\217\251\251f!\017\277\277?\031\303$A\216\227\277r9,\026U\305\301\277\273\230\344\334\207X\215\277t3\312-{N\242?\271\261n\3427\350\236?#+\316\373\360W\262?\270e\372\214\315l\263\277\345\245\267\3652\256\260?\301\022$\366\023\r\265?\"\262\"\254%\336\255\277\253B,\334\377{\304\277\356!G\221(\214\251\277\227Io\270k\201\232?gM\177\215\343\300\302?\234\247~^[&\251?\370\317/\334\023\303s?\371\353\016\202u\352\302?G=K\0014f\262\277>\234 \232<t\216?\261\027YwM\261\251?{\r\316\360\205\244\322?\317L\371T\377)\243\277\222\003\\\374\244\266\277\277\325\261\377\035a\036\305?\315XX\371\332\004\323\277\023\245\371l\355\310\262?F\266^\375\315\204\250?)\263tk\372\352\302\277\n\334\017(\020\000\242\277\331\275rH\255\'\262\277\321\337\317J\314\017\230?i:b\274d\300\306?\201b\234\230{\367\270?y \257l6K\252\277\202\025\256\260~\350\274?\200\337x\021\354q\302?0\305\035L\351\331\240?\256~\366b\353>\261?\327\213\251\21441\330\277\325\234\010ESL\241\277\025T|C\231\033\276?JQ\206\307\340\232\320\277\034\307\227Y\377\024\202?\312\200L\010\217N\273\277R\313\327\010\355\211\253\277\";\001@\351\271\254?D\314\274\003\260\342\202\277\3736\216\200\330n\264?\223{5\004k\210\303\277\302\322!h\232d\270?\346\242\363\"f\367\250\277\317\000*2L\356\274?!Vl:\335\324\277\277\250kBl\003f\244?\256H|\365\303[\205?\274\026$?\227\257q\277y\303_\322\365\337\253?\365b\303,U\247\264\277\004\tB\014\300\273\270\277!b\214\244\367\032\317\277niA\220\375\243\250\277\001\243\367\214\340\333\244\277\267\266\311\232\025b\303?\203R\227\272u^x?\343\361\311\212Dh\216\277\315\372\027\344u\242\304?\235Vg\214\347\356\305?\251f\300e\025\'\254?%\271\033R\006\325\254\277\351/\207\002\212c\321?\347\336_\\6\307\254?\360\343\374\023\007\305w?\210\016\036\351\200\373\273?\364\212\372<\274\255\323?&#\257\216g\314\222?l\351\245_\361e\300?Vl\331\367!\272\254?IM\217]\332\036\227?\306+\247\351e\307\302\277F\312\235.:\272\220\277\0133\020T\233q\227\277\224P\246\222\315\266u?\252beE\262\233\245?{\006\242\261\030\316\311\277x>{f\324T\230?\272\360\\\270p\223\257?#\313;\327\343\246\220\277\317\"\364\212\341\366\324?(%\3039\007\245\243?+/\254J\244\036\306?[\363\344\031\035\277\300\277\241=+\257\214\306@\277\337\352;\300\254B\310\277\257E f\240t\302?\363\205\027\233n\232\244\277\204\237\375\215F2\250\277\334D\331\266~\345\274?p\004\352\276\022\003\306?G\006\223,Wm\250?%\235\376n\206-\264?3\356~\026\372\031\255\277\250\333\231x\031\316\304\277_B\3432[@\232?\300Q3-\235?\242\277\211\326\326\016b\251\254\277>\274\031[\014`\251?z\324\250\220\335g\275?v\206g\023\260\246z?M\275bd\036$\275\277]\333\031\020\215 \203?r7buX\225\242?F&\364\344\"\010\255?\257\310E\301\362z\271?\315\021%~\'\n\251\277\356m\023\331\327\353\210\277=\316\177\233\213\241\277?\307 ;4ku\231\277\320\345\313\373qQ\245\2777D\001F\310:_\277X\373\250-\222&\212\277\371\026\230\233}-\302?\0130$\323\277y\321\277\273\017u\356\225Z\253?\023\242\252\034D+\255\277\352\251\\n\342\033\316\277\020o+8\354Vu?O\264\007\254a9\272?xf\037d\363K\277\277\355\222\021V\"\324\230?\340/\275\220\013f\307\277:\3754Bh\274\251\277\002xP\335\r\035\277\277\253\242Wh.\013\200\277\2540\200\333\336\335\274?\344\025m\255 \314\241?m\244$\177\005`\307?\342U!k\200w\320?|F\277\"\320\030\273\277\001E[M\320a\247\277\253\332)\361\030\272\244\277%{\264B\020^\301\277\342\300\023Za\017\222?o\266H\340[i\243?`\362\310\357\247C\232?\027\356\222\035\245\325\223\277#h\353\0339\322\246?\325Oi\321X\003\312\277l\251\267\035\240\301Q\277\354;\233\205\346\351\267?\203(`\33240\245?\035\261\016lWE\275\277O\017l\225\023\034\210?\2143#\246DD\222\277\306\351\366\261\266\024\272?DH\355\317\230\031\266?D\275 \341\361\256\235\277\266\346\322\217\306\274\303?V@\021f\347\001\244\277\'_\324f\350\335\222\277\353\3323V\007 \276\277k/\013\026\302\356\250?\313\372Le\024\354g\277\346\351\220\204ac\256\277\320+\004\013\001\266\254?\r)&\276\303\256\264?B\366h\"r9\253?\353\274\017\020E\267\270?;\270_\"!t\275\277\222\016H\330\376(\260?A\020\237\301\252\311d?\335\264\375}\217W\242?2*dJ\016\221\242\277\241\352\203M\367\301\241\277\305\376G&\275\244\310\277y\2340^\017R\203?\347\217\t\t\254\300\254?D\214\036\322\212\350\214?)\310`\"\021L\246?\247\305a\242E6\305\277ZeP\223\202\353\272?r\266\326\212D\330\237\277\366\334\200\260%\303\261?\321\221\3001\265oi\277\200I\346\200\360\200\262\277\275\204\341E\351\377G?y\302\300\360\202\215\303\277n\212\215!cy\261?\352}\030\377\242.\307?x\214\363&Wb\311?\t\263\003\336d\336\241?bFe \337!\306\277\337S\227\313\200\376\263\277\310\267A\335\230\330\267?\365oe%J1\302?\273\322\327\275\036.\242?Vq\324\201\247\214\314?+%\207\300\304\231\203?X\206CI\267\007\260?\363\354\227\t\033\267w\277 3c5\235\211\256?\313`\245\'\206n\204\277\363\2574\371\320m\221\277\330xD$\036\2776\277}\326(\330\3569\256\277\234\324c\326\277Q\310\277p\276\303\225\274\002\233\2775\215\256\314\212o\320?\020\355#>\006\207s?Ez\3270\343\262\254\2776b\332j\276\367c?\336\317\331\313V\373\251\277`\300\304\347\236;\241?\263\343:\244\237\365\252?\344\242\'\007o%\302?\224\364\244\3576\337\254?\251\221\317%\230\215\220?i\032\307\357\316\007\273?\276\270}\260\0206\276?\233\025N\331P\271\215\277\354\207[\266\352\275\264\277\275\013Q\310\016\233\260?\254D]s\255\300\273\277\326\253\212\2754\240\306\277Z\350^)\374\210\217\277\001\326\020\363c\331\224\277\201Z\0237r\351\266\277\307\321|xq\214\256?\201\t#\343\351B\263\277\266\034\300\231j\347\311?\225:\364i\346\342\244?\037\204W\354\017\233\260\277\310\373\321T[\267\216?\2777\261\177\\\221\300\277f\237\037\212\362d\264\277&\3714\352Ry\302\277\204\232+o\332\365\270?\207\306\315MM\217\271?\346J\023a\005\277\277?_\306\020E\351 \274?{\332\350\251\212\234\275?z\267\234\202\033\246\274\277\332\313\321\231\333\274\202\277\355\006\nB\240\300\206\277r\351o\314 \320\250?\237\272\022)\217\371\323?Q2\274\324i\356\221?\346t\177\274\3278\274\277\271\0253\234\276:\310?&i\226\020\305\241\242?,?\254\313\206\214\241?\223\252\241\362F8\374>6\314}X\235D\304\277\033\371\234\313\231`\254?0\236m}\'\255\264\277\271\177O\026Z\352\300\277\"uAZ\376zr\277\001\364\354\2229\235\213\277s\227\303{v \265?\212\023\033\372~\034\305?\310R\336j\304\215\214?#}QS\014\001\244?\033\222V\205\330\373\312?\334\342\225M\272\n\277\277\270\247?\265t\331\256?!T\242Vb\036\224\277\374\014P/\004\236\303\2770\336)2^P\276?M\264$\352o\217\247\277\201\261\345\212\275\201\252\277\256\267 z\225\333\254\277\026\316\256c\313}\222?S\322\'\325\332\372\213\277\343\216}\001\273W\261\277\376\226B\3463\231\257?\014bP<\376\020\263?\214\331\017Nl\215\312\277*\223\021\324\371\317\317\277\224\333\325O>~\220?\031;\340\242\305^\264?\277\365\311\341)u\226\2779ra\010\354c}\277\010\272\232\260\0178\253\277\366L\212\365\266\247\303?\346u-W\264?\223?;\2206\312&\201\205\277 VwA1\201\235?8\201\256\377\002]\305?\313\000x.Bug?\216\360\230\301gA\260\277)7\262B9\324r?\372\207N\242f\003\321\277\212\334\350\315;\234\266\277\210\031\241\235\246\270\311?\240\340T/\337\267\304\277^T1\256\224\323\243?\257\347&<\364a|?\332\277?@\370\026\270?\010\273\332\304\n2\274?}d\007\334b\316\261\277\347\361\r\307\353\211\271?\321\201W\322\227\270\237?D\276\373\240\231\315g?F\307\200\307\0311\236\277%h\245.\327\003\277\277\335\233 \275\216\361d?\377\355\376\202[c\252\277\325\036\203\204\205\340\232?\350\311\335\253\243\222\270?\305,\310\323Uz\321\2773|\022w\313%\215\277\370\002\202\001\276p\240?\361\211}(X\357\277\277K\204\363\207\"Y\272\277]9Y\367\262\020\204\277F\324\224-\322\001\302\277L3*E\314\352\267\277\365\201k\233\271\245\205?3\"\251\243\tk\306\277\233\313]\232\265T\320?\200\214\221\031\332\022\261\277\374\375\247\304\376\331\266?\363v\323k\227S\240\277\331\317\001E\'\204\236?j\373\213\261MT\261\277\016\270\310\330\232\253\221\277\312o\215\216<\321\242\277\371A\226\352\'5\243?\177[\'\275\307\211\306\277\231\241\215\003\347\002\302\277\373\267\336\300ag\304\277QC_\3306\363\254?\303\265@B\312\206\264?\"h\202\334\004\224\302?\022|\323&\303\275\271?\363X\034?\371\222\321\277\312\311\377Nho\301\277\010u>\221\270\250\262?\240\032b\035\231\303\261?h:\273P\237\322\225\277\000S\274:\345>\247\277\377\243\206\216\371\030\260?r/\203\312C\277\262?T?\346\265P\332\235?\030\302j\340W\270\245\277\r\311\201cv1\243\277\002\343a\237EX\313?\264?\351\271\215\207\241\277V\256\243\240\306\261\302?@\032\233\316>\307\277\277b)$\277:/\320?\347\211\022\203\316\251\302\277\"\206\2242\266\017\263\277\227/\334E \002\273\277A~7=\013\320\210?\373\213\306\372\364\327\271?\250\242c\2100\227\312\277\331\263o\354_\235o\277\030l\324;\037\r\264?\000\341.\244\337\365\273?8-\004\0231\022\217?\243s\254\037\234\211\301\277xBV\013\023\301\262?y\270\203\251\223\236\270\277\356\252\217\362\320\301\261\277n\030*\016,\362\312?\341J\023F\026\310\267?\245\207_\361\004\273\264\277\254\371k\013\263\242}\277\216\234\330O\347\337\271?\001\241\200\276\372\307\261?\225\212\357\372\312\020\266?K6\300\252\2607\264?\240Gc\364\375\004\274\277\014\264\253\315\231\035\312\277?\177\272\245a\344\304?\027(;\031\260\357\237\277\342:\376vt\243\303?/\025D\335\242\262\322\277\022\005$y\0309\267?\213#\205Z \\\227\277y\276\237\017\035\177\246\2771q\315\036\037\220\257\2777\024\323\024Q$x\277\232\243\202\321d`\232\277\274\007\366W|\020\304?\235F:\241\014\364\253\277p\207Qn\t,\302\277\030U\353{\320\243\252?2bp\321\022\270\317?5a\366\344@\207\301?\346!\035\336\251\024\246?\032\350\034\210;\265x?\215P\301(\352\020\242?GC(\345\035|\270?\346\252\277r*#\250?q\216\206\014\264\032\312\277\374\315\330\241\\\311\276\277\313\304\020\020\206X\277?\004\365\252f \000\253\277\005\025\350\360\301\360\247\277\32621\206\312\276\275?\227\273b\263n/\320?\333\307X\026 \023\320\277\257\032\021\222m_{\277\202\341/\247+\246\217\277\351\237]\022q\203\264\277t\364 :;\035\307?\204\371\346\217d\221\177\277\270_\365\223\2222\301?*\rh\374dq\313\277\374\217\004^Ps\237\277\316\354\225\276\350\252\240\277\362\222\203\3657i\300\277\3613\355J\215X\245\2771\224\256&x\237\262\277\027C\216y\272{\267?\266\363}\343(\332\300?\267\035\335\323\251Q\251\277G\315\243W\352\371i?\266}\001k\352S\246\277\327\33459\3649\302\277C\312SpB\350\257?\227a\016\177\204\000\273\277\255(m\242I\314\310\277\224\241\023g\315\305\266?[\331I\r\037\242\300?\016/\302>\034\244\272\277\367\222uW\3228\206?\"\023\354\324Y\331\303\277p\342\331l(2\315?\224\230&\267\215\364\325?\270\304\236\271\201\305\252?\370\350,\313\360\266\303\277\317\225\351M(@\307\2777\273\260\003\364\\\231\277\001\217\250I\204\300\247\277\375\344\246\323\336\345^\277\216\253\205(\0037\305\277j\221\260Q\347\314\254?I\214\347[\235\356\324\277\254W:\315=G\271\277\006\233\315\250l#\301?\033\325\340\203\215\246\272?\005\235E\305 \366\263?}=\347g\013\340\302\277\265\223@\316\004\032\242\277\360R\302t^\227\271?\343%\3749\374\033\201\277\316.T\364S\032\302?+\'\266gY\345\267?\2178,\025\301\364\231\277\302\342l\202\347\004\241\277@\\\373\366D\014\262?h\263\202\241>\223\226?\317L\tXe\305\312\277\327\345n,Z#\227?\\\035\'\376A\253\253?o\351\331\270\334\"\316\277&%\266\023K\'\347?J\251\026\347T\010\240?u\211Q\014\212_\311\277\250l\"v\273b\250\277G\222\352o#\377\206\277\204d\361\0004%\236\277\254\252L\034\212\323\304?\237f\240\032\342s\241?C+\022\226c\372\204?]V\377\034\217\3336\277;J\014\231\312\016\317\277\037\273\273\347\263\252\300?\266y\2709\033\361\243?3D\004\335\353D\275\277\202+\216\027\310\t\317?mbB\027\214\014\213?\257\225N\301\227\332\213?yw\216\270\250\362\304\277\261\264\273\352\t\354\260\277\2057{\246\307Y\263?\220!\334\252\010?\302\277\267\26712\372\251\310?\2551\005\007\261$\214\277\276\205\323\005F\257\227\277\240\223\377\243<*\266\277:\363\322\2074\203\244?\261\022\333\327r\326\261\277\345\010\335\261\002\000\265?\353\254\357P\324\376\242?\323\225\205\023\365z\223\277\211@zw\035\362\321\277Qh>6\243,\305?\n\r.\034L`\257\277\016#\3259\014F\203?\0103\2258v\020\210?_\302\253\244J\220\235\277x\225\376\255\247\266\255\277\275\361\004\374\336}\203\277\370\235\205\237\351J\233\277\301\224\240\306yX\204\277\300a=2\002\272\251?6v\014\310\263\336\226\277\307?\005r\212 \320?\007u\342\362K\032\261\277\273\\xD\035=\231?\377\rx\026\260P\271\2774\355X\301\265\300\272?o\257\230\017\356c\303\277m\344\225\245\016\234\267?\022\363\307H\276\253\224\277<\034\247\302%\373\221?po\0109\203\223\303?h\006\014y\203\261\311\277\234U\371/\367\320t?\032\021\345\225\373\007x?EC\350fq\265\310\277\tv\255W\032L\320?\010\025\374\375pvs\277\260\313}\020X7\307?\032\275\031\374rq\244\277Vk\263\366\311\276\311?\220\'\237z\030\223\311\277\r\377\275\"\320\347\252\277\033iI\017\252\276\272?`j\261\232\226P\263??\3211\206(\235\303\277\360\351\345\370z\321\235\277-\025\014\265\347E\234?\033\002\267\243\226>\266\277\213\322\313xI\364\260\277\024\226\260h\020&\327?\330\366\243\r\023\342\205?\252\227\242\r\221\036\241?i\247\300E\210\232\301\277\301\013\207\364Z\333\237?T\260\034\364Q\255\300?\310\244N\200\205*\242?\ra\255\357-\000\266\277D\252\307\354B\345&\277<[CB\323y\303?\257\373\004\362\247>\267\277\r4\246\320\265\273\260?\375\244s]\026\346\206\277_\302\327\265\324\201y?:\304\302P\\O\254\277;f\237\275\244\355\231?h\321O fB\303\277\236[\272\237Z\204\303?\363\005(\215\t)\234\277w\375\227\014\361\367\253?A\032\244pO\307\257?\014\201y\316\014j\304\277c\361\212;Zm\272\277L\353\316\306\337\005\231?\301\001r\302\377\005\303\277\335\343\304\373\007\217\272?\010,\225D\227\345\225?\037\320\237\031h*\264\277\002\221#\3166/\317?J-Z\267iW\240?i\376t=X\271\272\277\027\216\272\201\n\020\225?\312\271)\247\254O\226\277\2633\2106\377r\245\277\021\352\364\216\245\252m\277\367\2617\370C\255\272?\354\225\214\034\014l\256?\223\023R\245\246\324\267?v8\274s\261t\313\277\227\263\375\031\321\375\304\277p\021\010\335\301\016\213?B\335\355\351\017\036\267\277\240V\314\313\322m\261?\035\025F\352\226|p?\333_\255q.\316\221?\034\350\364RO\266\240\277^\365SQ\022\334\301?W\367~\372i\336\220?\215\327l\214\325X\307\277&n=\276\376\204\222\277D\231\020p\375\235\303?\312\031e\356\243)\266?\207r\007\211r\277\245\277L\230\350?\025\270\272?\005\331\331\345\034[\237?x`\242\325\374y\276?\203^\376\354T`\305?\305+\336@\326\nN?s\370\237 /\353\224?C\267\032\2113\307\304?q\003/\217g4\253\277\231\245\222\250|\254\262?v?dg\010\274\223?\"\036\032\017t@\306?w\024,x\036 \234\277jf\014\222\001\343\260?\364\021\264E\227\304\263\277T\017\205M\371\356\273?\200\033d\215\032\205\211\277\373\276\263\355#\272\240\277\371\215\024y\306_\307\277\264\303\032\246\241\365\242?b\331z%\275\325\255?\257~\211V\030\257\304\277\324\255\271&\324\215\260\277;\247c\236\373]\241\277B\245ziM\303\221?@7$\372t\361\321\277]2\003b\324\007\255?\325\341\336\013VP\265\277\373L\241\217\336\377\263?\204\225\\\310\356\203\313?\005\\\3044$\254\264?\200D\302\2654\272W\277z\273\252\027&\307\226\277a\223\307\372\311\213\251\277\211\357**\300\325\247?\2200\035(\337\"\241?K\224\274?\032\020\275\277\315\216\245e^Y\210?\'Y\027\374\256\323\311?j\344\013X\330\266\263\277\357\271\210\253\320\230\232\277\204\254\024\264\301\331r?3X,&P\265\263\277\345<\371\252D1\236\277\350\331\"\t\225g\272\277x\222=\336#\345g\277s\001\221bpo\302?j\331\r\0340-\233\277\353_\001\374\200@\300?\310r\204\0371;\317?z\356\025\235\351.\260?vX\273\373\357\026\235\277\014\r|\017\277c\257\277\263\346G\rQ\016\274?\007\356\033Q\235\346\246?\006\001\254\324\036\032\221?\343\354\362%\257\264\226\277\236f\000\330\000\211\234?\311(&\341\001\277\226\277Y\216H\210O\321\236\277T9\023\"\356\305\301\277\346\251/\322\0370\226\277kJ\330\371\301\243\220?T\227d\2452\237\245?L\213O\271\246\375\260?\014\001\360}w\231O\277\364\224P\272\227H\206\277G\326RK\002Y\302?\222\237)\261\007\246\250?\225I\265\205\366\275\307?\270\271\234\273p\354\274\277<Hl~\2652\270?\020\215n\202\335\345\311\277\023mz\331/\220\265?$\375\016e\261$\321\277\313\210X\231|\340\225?\221\365o\307GJ\277?\367\250j\r\016\002\230\277}xj:5j\300?\030\373m\335Nd\250?\311\022s\262\016\033\232\277\"E\205\342\222\371\322?\000\316o\010\255\303\250?\322*\300F\207)\224?\353\267\240\313\"1\224\277:\347\377\311r?\300?9\022_Q\013)\250\277\231j\321\375\366d\301?\331\327\322\"\020\341\257?\333\3733x7\014\256\277\'\0331O\376*\206\2777\030\233p}\257\253?KEr\010\206U\267?\217\020\006K\333\353\251?),X\177#Z\277?.r\301S\323\216\267\277\033\027c\005\333\343\237?bj\213\305.\010\223\277\274\221\020\370(\243\311?\\SuA2\013\301\2778\010\345\033\220\357\201?\013hp\337\343\344\313?\023V/\217\272k\336\277B\327\020\032=\242\271\277@}j\271\247\362\263\277f\346T\203\375\333\304?\3523*\335\366\r\263?\241\374\301\363\314\016\244?^\214\222\307\370\375\217\277!O\237\014\036\216\275\277\331\335\257\332\337w\247\277/pl\257A\342\251\277 -&\365\257;\321\277\303\312\203\t%B\270\277`\317\335\362\320\344\262\277\022\303\306n&-\277?\016*]\014\365\177\303?\232\351\312\200\207\203\225\277\333+\006\224\207Z\321?\342\010\274\377DI\301?\235\237\203\333U\310\245\277\242\344@M\017\331\225?\030\324\216b\243\207\302\277\246q\255D@\217\300\277W\211s\313\364\201\244?\227\371|2\325\203\302?\000\217E2\240D\274?R\252\177\223\200\275\224?*V\215\203$\254\247?\345\253N\334\250^\306\277\275<\316\263\301f\254?f\035\342\311M\017\210??\026\343\256J\036\257\277Z\314yO\037\275\310\277\263\367\023E\221\256\301?Bf~y\215r\262\277\215\203\025\000\314\362h\277\326\260\332\260\244\'\265\277\331V0\262A\037\207?G\337\316\271(\013\256?\247q\016\216\324\013\252?\302Q\n\n+\300\252?\247\000\303K\201\325\231?\271\3372\256h\242\252\277\237\336|\'@l8?\271\305\262\231Z=S\2773\312\341\221\313=\310?_>A\215\223S\306\277Vg\345t\330\360\254?\352\244\243\216S\277\232\277`\302\275*\336\232\244\277\373;F\204\177H\311\277k\375gA\323T\245\277,\036HzR\374\261?i\036#\377\036H\264?d\254\321\274\0335\267?\250\266\231h\230\255q\277\250\366L\225ne[\277\007\260\000x\244M\263?\270\254]\2135F\235\277u\213c\234\260\335\221?\265\2413\303\311\n\272?%\354(\014\000\313\213\277/\026\253j\001\254\260\277/@n\212\372\227\256?\037Z\323\006|G\326?\037\2436\340\034\324\254\277\376\207\241js\202\271\277\245\374\254\305-\224\321?\016\256\215!\311\321\307\277#\224|\n\272\305\304\277\377\355\212\017\232\332\304\2778)l\222\335W\235\277\264\263\267\342\367|\250\277\210\346\2363Li\262\277\320J\312\227I\246\270?\342\263\031^\005C\263?\030nI\n_\231\302?\240P~T\033^\276\277&S-\3572\304\260\277\033\254c\342|\211\242?Y\235\205\274\344\213\252?t\336\326e\274\226\266\277\300\347\315\227\240%\227?\345\370\267N\023\360\223?\337\347K\225#\210\321?E\251\177\307\330|\262?\321\247\330nz\337\260?\276\330,sx\177y?\374[\215\330\276\244\300\277\2407\223\322\316\355\312\277\262*\t9T\230\253?[\024\314 #\365\236\277\313\242\334\272\r\236~?\373HG)c^\234\277\323\204\002\216\326\225\243?\375\026W\370H\000\257?e\353\324\317Jy\254?j\300\360\254)k\260?=jh\246-\006\215\277\312\376\001?}\345\240?h\363\035\372\027\\\221?8\221\340R\327\270\267?\320\372\371\'#\027\234\277/\335\373j\200\033\241?\265\366\nhr\033\245\277\020\300\315T\367;\245\277\014\337z\377\021\307\317?\314\273\016\032y\361\251?\307\221\252\231\330T\272?~R\342\313.~\311\277\374\347\353\232\247G\231\277{UYj\247\234\271?\016\232\337\n`\031\265\277\n\345bl\rY\251? Z\357\372\207\027\273\277\352\234,\302\3034\250\277\345\345\245\020\252\003\251?,^\336\364)2v\277\216\266I\301\251I\246?\347:\341\336\'3\236?\267\335Ou\306[\230?\276\343\341\275\275\256\204\277\201\334\305\007\024m\245\277\2038\302]\r\231\266?y\000#\311\355\365\243?\013\220\366j>\010\260\277\313\'\303\327W\361\310?\024\r\005\177a\021g\277\206\'Ns\371x\275\277\226\307a\312;n\262\277\036($(\213 \315?\023\224fr\251\353\274\277\323\224k\342\035&\302?\213\2138\337\327)\300?i\005\3145\023i\257\277\"6P\r\372^\262\277e\017.\003\004N\303\277\262\367\021S{\026\250?\2436\214\n=D\226?\203:\016\225\232\247\251?\003g\246\344g\304\240\277\035uX[w\351\250\277j)\2217\231Y\246\277\014].Lyjr\277\007W\231\234\200@\310\277\242\220v\375$*\257?\222E\025\3122\310\253?\014zw~\2376\256\277v\035\231\273\373D\306\277k\360\335\340\300\323\246\277c\346\351\304\025\303\245\277\032\025|\316\310u\307?\245~\223\025\323A\224\277m|\355\227\355Q\303\277s\340\272On\200\271?\2105\341\023r_\265?\255]M\310)t\261?\205\027\335p\367q\212\277Y\031\003]\234j\315?\205\022N\262\002\254\264\277\246tz\271\242\227\276\277\307%\310\227\241?\263\2776\324\002h\270\212s\277^\254\231w\207\230\252?*\336\025\177\220\004\275\277\213]\263\276\3422\310\277J,\'?f8\263\277_\212\313V\350\267\271?\177m\377\313FH\313?a\362\013\203~\333\326\277\377\310\036\3116\376\254?\230\203\n\246\375x\267\277\205W\\\230j/\252?\256\361\337\275\246\200m?\314X\220\232\304\243\260?+\304\247s\264\333\272\277F>$\327\272\006\221\277\373\266\2750V\023}\277\363\307\244Y%\215\305\277\317\363\t\311`/\311\277!\204\370O\233\245\230?\211\346\275MZ[\240\277k\312\317\253~#\335?\305\341\002X\266\263\272?\354y\212\370\332\300k\277eP1\033\262c\313\277\215\347\206\261o\374\272?\242\363\252\013\365_\201?>\377\365\273TU\227?\024#G\215\310\271\261?\302\341Q\"\2413\227\277\020\005\"\221\260\266\366\276Y\006- \023\353\252?dh?//B\241?\336W\333@N\266\276?8\324\336 \321G\273?]3\302\235PL\271\277\277\032\321\313\367\267\324\277B\260\263]\275\334\222?-h/uM\005\301\277\2119i\260\325\206\260\277\302\341\332\333\356\374\263?\302Py\310\321&\234\277\224\026IOv\261\265?\353_3\270S\336\241\277O\3610\236\334\014\261?\264\0332\360!\260\272?\230\263\036wd\026{\277\234s\027\366\356\373y?F9\200Q\207=\242?r*+i:R\323?\300\304\255\335\226u\321\277\021K$c?\222\246\277\271h\320Fq\315\241\277\240\375\364\245-I\241?\025\300O\343A\375\267\277\013\317\013\350\303\205\260?\336\263Q\037\317|\276?V~\035\230\332\000\256?\214\340\212\204i\004\260\277\232\013Azt\207\266?\227\'\031\177\263f\260\277v\264\021\253=o\222\277\265,\210\031\226\221\231?\n\004F\370\201,\277?q\366-(\267`\203?-\216R\326\277\222)\277\355\346s\302G\371\255\277\371!\022r_\t\302\277W!\026\007\314@\270\277\220\250.I\343\202\302?\354\304\310\013|\247\254?g\004\'\367r\252\256?\260\271\342\333\340\022\302\277\331\321#LZ<\301?\\\211j)\210\027\276?zW\366P\021\307\271\277)\2701k\376\235\272\277\2667\377\314]u\311?\367G\"Y\344\220\250?\357@l\2512Q\274?\206\024\263\215\242N\226\277\375\273\3604\320T\224\277\327\254F_\221\272\313\277S\235;\275n\271\240\277\206w/\303\t^\236\277e\342\366\324\236A\262?\313\023\371\r\031\273\255\277avt\000J\260\237?k\024\254\031j\271\302\277\254\314\312\351\373\250\255?\r\272\353Z\'z\271?\373\364\240\237\214\023\323\277\022\037J\013\236T\274?\003R\303\252}\273h\277s\256:{\240o\261?[\033\350\213|\307\277?\273\312\32238%\243\277\267X\025\365\351hq?\037)O\355\213\'\261\277 \223\311\212\227\025R?0\003O\271\214\370\253?@\226\035\212T\272\267?\210\217\350\336\016\343\261?\307\204\035\214qY\250\277\333\342\002\341\265=u\277\252h\2437\017\333\240\277m9\355\307\003C\250?`l\364\360\251\323\253\277\326\t\241\013<\354\250?Vf\235\316b\261\254\277\023\210\370\024uf\277\277\000\356\274\025\217\267\242\277\227\213\242S\377\277i\277\013\234\363\367H\200\301\277\177\014\271\023\251\241\227?\353\343\207Z\010\367\222?9\303ku\373\277\321\277\336\342\033p\036\233\207?\352)\366zw\366\271?\345\305k\215\177J\277\277\203\245\206\333U\230\263?\246>yM\374C\230\277\034\216\352\236\n\326\266?\222pQ\2523\275\226?_\211\357\251\332}\273?LV\237\334\004j\315\277\356<4\216I,\303\277x*\337S\325|\264\277\233G6=\002\250\226\277\306\347<\220\204\326\260\277\357u+\235\305\236t\277\317\273\2752x\323\305?4\033\341\341\223\307\255?<x+~\220N\235?}#\306\225\342|\243\277q\351?\255\355Q\273?\312q\021\204\014\017\326?1j\3758h\353\222\277M\271E\202\366\026\306\277\232d\216\306\345\014\255?\343\252\222\227\227\361\253\277\032\355I\333\240\211\212\277\375\235\205H\363\027p\277/\305X@\337r\242?;[N{\250\220\271\277&\214Rz\245\271\262?|Ar\033\273\301\304\277\020Q\022\350\033\351\306?\320\351\227\342\306v\236?\245y\017\304\312\263\215?f\021\000\257(\010\225\277E_I\341_f\243\277\006\210\322a\246\312\302?5\345\034D\206T\262?\017\013\345\016\337[\306\277\022\302:k<R\220\277\\I\033\334\016\321\263?\376CH\215\243C\301\277_\344s\344\220&\273?\246\244\362\021#\016\251\277a\266\306\007\017;\263?_\032\335\324M0\330?Lh{Ay\035\315\277cB\\k\026\t\230?1\031\227z\341\016\252?8\205\216\014\260\337\302?\354\325%&\353 \316\277d\306\360\235\007\305\244\277\'\267\331\235\231\240:?X\3053*\370X\253\277\"W\037\034q\360\245\277\257\033|\232^\367\246?\323t_\335b%\246?\247\024!7\364t\246?O/\211W\354N\227?\006^-\270\244\223\257?\350\016u\257\310\253\263?\3641\247D\013e\222\277Tx\232\373\0351\272\277\n#\313\350\377o\253\277i\231;\242\036\326\236?\267\245G[\023\226\227\277\3238?h)m\243\277\360\301K\315;s\320\277\266;:|V\225\244?\374d\252\233x\245\243?\323\304#^&\242d\277\353\343!A\254\350\250?\356\014G6\364?\253\277j\345\033cu\'\272\277\325\344\366zY\375\264\277\225\324\265\357D\216\262?n\272\037dZ\300\203\277!\030\200\023Lt\256?\234\223\273\334\320s\274?\334I\206K@\336\272\277/\202\036\201|\266\230\277\220x\007\221\257S\323?\344b\352p\'k$?\345\234\277\027g\207\227\277\215\322Ex*d\234\277\345i-\243i\301\274\277\231\232\233\206\311\013\223?B\342\226r\207\353\312\277L_6h\253\005\265\2778E\317\201\335\364\252\277\317\006\\:\230\020\302?JH\263\274\347\321\206\277\221\037\331U\213;\310?\221B\361\330u\356\244\2773e\212\027\376\200\301?~\002*\323\'\374\321\277\026\347I\305\230\275{?\004\016w\313V\324\266\277U+\2420\030\177\233?\325\207\217\272,\201\252\277\237U\2157\'\214\302?\337?\271X[\350\224?\'-\204\254\323\027\277\277\252\031\267\276\033\177\266?x\334\001\270\325L\265\277\360\213J\354\032T\242?\021\316\355o\3147\300\277\267d\324\037\n,\223?\343\267\2774\027\030\263?\272\345\347c\023i\307?;W\367o\202\347\252?\330\0021C\002\355\274?7X\332^\002\200\254?\277\352\343\222+\337\256?Bc\350\022\344\274\252? *\\A>J\264\277k\236\272\344\200\034\307\277w2\240\306\220\263\306\277NW\202\273i\256\241?\200\237\271 \337\324\310?\245F\253{g\262\301\277\213f:^\365d\240?_\24406u\353\225\277\205x!\301\002>\266?R\354C\357\257n\242?\224\022v\267\r\361\300\277I\270\313\200N\026\317\2775\340\225\334\r\025\237\277b2\242\277\r\215\265?,\036y\215\343\270\316?z\023\324lJ5\265?B`\026\262\364\243\252?\341^/Mq\035\265?\211\0142\260\241(\303\277}\232\232\200e\025\315?c\r\tS$k\313\277U\301\343?\245K\255\277\024\014\205\2167\230\271\277!\375\305j\261j\264?\323\302\3555\361!\242\277\016\227T\232w/\307?\tE\315\030T\241\251?\\\014kU\177b\214?VI\001\231\212\362\304\277\231\227Y\310l\321]? \353\2451\305\033\240?\027\002\374\036\013Q\251?\233\035`\240\276v\211?\010\333\251\366\241\252x\277HM\206\025a\271\253\277\0144\315\035N`\264\277>7xakE\300\277=\365\323\211a\353\300?]\235\356\266B\005\226?\366e\021\325\245\376\274?\323\216\364\202\351>\266\277y \216\270\t\232\260?\005\203vg\230[\303?\242,}\260!\003\273\277\231NR\235\030y\272?\037\242NU.\236\310\277!\332\003\365\270\326\232?\271\365t\215pu\262\277\203\026\367\215\260\250\304?0\341T~\214d\240\277I\200b\377\270\255\267\277VG\241\272\224\005\243\277\261\274\320\\o$\246\277\377;Sj\302\301\300\277\334\221\245\352\264i\252?\331\367\250DH\334s\277\021-\251\nb\230\246?\277\203\335\370\030\237\250?#Yv\351E\276\211?&\310f\340\037\363\311\277C\022\033\020n\276\261?\367\257\337\227\242n\261?\003H{\200\256}\257?\250\361\224\026\242\246\303\277\034n\357\'\260\320\260\277\371<\\G\211(\252\277|M\307\241\202\260\267\277\221\036*3\257\357\266?8\032\014\205\215\\\251?|\366\t\007\227\024\246?H]\257}\3532\305\277\236e4\256\205\327\274?\242#0\242\231@\250?\300h\034\331?\336\271\277iT\225\330\223\242\312?\036\3232M(\301\307\277\255\031\265\rQI\261?\213\013\2568\351\241\220?\245\344\341\006\2530\227\277\nGl\250\326\220\243?\300\017!\000\027\013\300?\232\216\005Y\025\256\314\277\002\307\326)\270\377\244\2775\245\353\003\230}\274\277\206zLA6\260\307?\014r)\225\211\365\226\277\305,&\376B\274\210\277\'\343\340A\351\256\317?\306\304D\276\211%\245?7\363\014\216\301\203\267?e\032\255\262\347\'\211?_\314\266?\022\021\275?\364\270\370}\324\374\302?l,WZw\276\264\277\370a\215\333\367k\263\277\220Iz\005\265\320\243?\331\313!\251\351\210\252?PA\276\216\214?\263?c\"\324}\034f\325\277\264\223\315\307\260\023\275?\253=\264\002\213\025\260\277S\210\223\024Z\366\326\277\363}}\\i\376\260\277!\022\262w)l\241\277\215\020\330\247R\201\263?}\023\265\002\'g\257?\224\037k\200\013\013\177\277Q\345Q\257\207\363\214\277*e\222\304\244K\227?\263\021t/\215S\320\2772\365z\247\263\025\271?d\3530n\'\026\266?\324\360\301\366\353\215\260\277\006*\217\020\213{\304\277\364\247\366c\033\255\230?\351\2518\035\0244\263?\337\037C1\376,\271?\235:\332\333L\344\275\277\240\352-\031\214\353~?\321;d\244\216r\310?g\360z\336\032\206\312\277 \360\030\000t\236\261?\327nf*\032L\207\277[\025\277h=U\242\277\273\303\027\263\345\311_\277=GY\256\032\225\224\277\314\010\317\013\257$\326?\347kp\263\205I\310\277\2719T/d\351\232?\306\224\017\0027\030\224\277\301\332\325\357\223\010\265\277C\306#K0\233\260?\327\322\223n\r\364\260\277\3556]\002%\034N\277\314\023\326f\265\374\310?\374\354K\214\002\303\272\277\177P\251\335\327\254\271?\010\215#\2000\363\310\277\246`\241A9\337\267\277*\263x\220\r)\304?Z\005\365\277<X\302?\360\017\223\252\357l\341\277r\006\221\330\336\177\302\277\251\373\301\0366\360\222\277\003D\361\006XS\265\277]\261c\240\n\225\251\277\323/\rv\265\031\266\277x\262w\3433\224\260\277S\332r|7\007\310?\334\275\n\017\304{\257?fk\3759\224\346\275?\001\245\202\3711\317\262\277\311&\304(at\200\277\212\376\272\007\300\214\266\277\007\033 `q\020\303?\335\363\317\352C\203\306?N\237:\262FQ\224\277\2144\3470\341o\220?\215ST\337\3442\225\277\203\0255\nk\220\240\277\230\004\205U\372\266\262\2771)\251\001\327\364\315\277m\371E(\024\237\275\277S\307\324\246\177.\251?\321\035-vTu\266\277\214\327\025zD\227\301?\027\312S\271\302\315\262\277E\033\216\224\025\231\260?\030l\007\010\243Z\276?\005\n\274\350\327\263\312?\002\027\232\317\013D\251?\374t\247\226U\247\302?\362\316ZKw\227\263\277<R]O\232E\302\277 %\177<w\021\262\277\224\247\024\276\377:\265?\005\374eA\203\033\306\277\037\277\342\305\2719\272\277wS`<8M]?\275\321\255R\347\002\311?\251E\035\275\360\300\223?\331P\217\021\232\244\244\277\255j\330X\231\315\200\277\313\223\377\367\353\027\243\277\337\217\306\230\370\277\304\277\213\224\334\250\322\303\260\277\207L\241\nB\264\301?\224\321\242\255\375#\206?\317D\204\0246N\260?#\235\271(\362M\300\277\024w#\303\365:\201?\020_\231\357a\237\265?!/C+\025\305\251\277\"\250\354\200\004\252\274\277\366\326;}7`\260\277#\210\356\006\002\222\252\277\210\356.\355e|\267?\006\014\342\240 \265\306?2\217\264\034\306\201\256?\333r\276W\275>\304\2779\256b\350\255\021\224\277h>H\305\333\001\274?\374.\261\324\322 \306\277\352\352?\372\274\256\213\277j\251\0017Vt\305\277w\343=\222\\\360p?^\037\032`Y0\244\277\202~<\n\303\314\313\277\010X9vk\271\263\277\207\025\272\367_1\260\277\232\236\225\342\265\224\306?,\271\021-\332\236\310?\t\232o\376\363\021\215\277\367L\177\275\230\000\256?.k`\003|\323\272?\357T\250]2>\316?\274&\372\362\215\243\250?\013\313\'W\177\305\307?\253\302\022\223rI\233?\333ux;O\204\242?\336\331\253\312=\205\312\277g\231k\207d\026\236\277\320d\336\307x\023\241\277\302\\\277m\267\241\266?\027\224 \201R\177\246?=\237%K\3472\306\277q\301\257\352\272a\200\277\\1)o\227M\305?\277K\313\367mv\322?\326i%j\311\327\266\277\236<$7S\352\307\277b\245x0\273\363\235\277\304t\372\352X\272\300\277\323\342\255\021\021\020\227\277m\217\377\005\375\376\304?e Ym\307(\262?2\025\212;cb\205\277\250sp\203\331x\265\277\\\245?W{\343\323?\204\n\345\247\022\026W\277\327\027\003\013N\217\246\277@\266>$\3127\245?A\305S#\333n\275\277\016Nz\373j\325\302?\273\204\3765}Z\304?<\320XjF\320\270?\317\312\n\263\317o\303?\3161s\023\217\364\254?\305\261\316\260\253\364\241?\214\203\277\337\363\006\276?~\220{2/\276\241?)Y\027\212\020\302\210\2772(\342\343E\350\300\277\222\250|\270\201 \300\277\376\335\274JG\266\243?\372\n\371\310d\365\272\277\034&D\t\030S\303\277\\\n}\276kt\275\277\225\365D\001\303\221\230\277\020\371(\227mB\274?\374X]3\t\254\221\277\334\224\200\242\200Y\245\277h\266\307\025\006:\264?\020\026\323\332\370\210\250\277>k\177\355\301C\213?\354X\345\244\201\374\257\277h/\237\037\034\223\313?\302\342\206k\206;\254\277$Y\331\323\220\326\271\277\330q^\226\321\302\301?\265\223\333\262\016$t?~\322\r\274\2053r\277i\203\224sW\306\261\277\365\317#\301\265\000\177?EM\25526\270\240?\344\314\301L,\362\246\277e-\354\206V\261W\277 \241\335\204\r\352\250\277\241f/\224\251\177\247?\034\204\254\013\260\017\220?e|\275\337!\224\300\277\301\300\234+d\260\267?\367\201\217\337\000\310\223?\255\350\361\037\th\247?\200\033+n\263f\262?\227N\356\372L\332t\277s\3409\0137\325\273\277\003\336%\376{$\307?8x\325M\020\246\302?\351\356\336>/A\254?\035\330\245<\310\263\230?\352)\t\213\330\022\275\277/\036f\315\353\240\253\277\031P\214S\221U\227\277\225\306\340p\245\000\233\277%\261,9\230\367\307?\336\352\227\241~\226\220\277\371\267*\305\203\352\303\277]\020=$\327\237\245\277H\314Uf>\354\272\277\275r\330}\317>\240?/\235\311)\321\033\234\277D,\353l\324K\321\277B\007\206\366\\\232\265?`\232O\354\001\323\300?U\226K\367\320\211\312\277J\322Y\353R\334\300\277.\234\024\244t\254\245?\232/\211fd\360V?9\240\205I\304X\320\277\312\t@\004\341\244v\277\016F\340\2504\021\272?\177\311B\214:\002\272?19s\332\376\363\304\277\274\026\375\2000\252\271?m\207?*\240\275\310\277\'\303\315\310>3\315?r\343ea\257$\305?\347\257\317\036\n\213\262\277\247\363\231Q\016\322\261?\340\276\330UC\220\310?\006\351\252N\246\224\300\277\'\276\313_\300\372q?v\341XFM\000\312\277\371\251R\031\372\315\237\277-\315\246\304\213N\220\277 \210\336\226\234\371\304\277\357\321b\241\2475\243?UEU\327\273X\272\277\t\277\233\202\212\233\242? \032\305\332E\317\251\277\244\355\032\262\202\245\214\277h\035\3553\262\213\265?\357\007s\031E\005\310?9\321\020\2454m\231?2\206;)\217\036\257\277\374\343A\202h\203\201?\370\312\035V\353\001\325?tae\232x\277\245\277\317\323\r\247:u\257\277\'\261\317\275\215\356\313\277`n-\224\343v\320\277vx\356\025\351\026\276?&\213\264=\231i\313\277\351\354\272\351n\034\303?\264\315\n\344 \n\233?\256\304\031PCh\216\277\357\360\2608\337\333\311\277k\3608bQ\231\256?\323\205\3160\r\246\251?^\3413\206\033f\244?\217N\245\317\0023\273\277\"\333\250~Z\263\260\277|m0\210/@\302?\241\337\231s\203\345\315?K\221{np\241\261\277\230<q\032\224q\270\277P\325\025\324\300d\200?,w4t\033\236\260\277\260\006\307\245\371Y\264\2775\344j2u\001\242?\305\224\212[-\205\321?\335\354 \255\315\031\225\277\r\342!\311\304\264\250\277\312B\017V?\204\243\277\274=\330\252\210\252\270\277[\211\227\306Az\301\277}Jt\304d\350\246?\224\2474!\004\226\307?>81o6\374\201\277+\360\326E1\006\311?x\272\025\216]\002\263?\345[\227?V\201\250\277\203]@(!\264\227\277Ic\216\373\302b\270\277\220\371z\017Z\241\254?\210^\254\307\332\372k?C\354b0L\226G\277\231H\252\245\365M\301\277S\352\321\"\323\277o\277\226\010\207\220\213\247\242?W8\211B\215\331\177\277\221\'\202Z\255\247\314\277\224\243\361\224\202\023\304?X\014\3276L\216\246\277TU\263\221\340\303\252?\356\311\317\360\275\364\300\277J\237\324&\353Un\277@\255\217\274\262\336\257\277B\346\226;\252\357\255?\240\371\346\005\023:\310?\353\001\n\337I\021\202?)\261h\010B\245\301?D\337\252\272\363V\270\277\t\352\201\200\007\'\255?]q\232\2570\377\232\277\032\2234W\000\323\244\277$\034\276\207\232\343\244\277M\032%\267 \303\241\277\236\363\357\250\312q\246?\325K\202\024\2415\327\277\0066\225\243;\024\225?\255\302\342\213E\277z\277\224\233-0.\367\253\277\264W\365\343\320\267\306?#\212\320\3131-\271\2777%\202p\025}\261?u\222e\362\332)\310?L\234\213\3033\305\246\277\212\320\270\005)\324\207\277\254d\322\363\373}\276?\305\020\020\204\241\210\305?\262\267\004\037\325\223\270\277A?\2668\354\235\226\277]\221\254>\361v\326\277Yi\274d\352%\270\277\322M,v4\304\272\277-D\332\313x\375\246\277z\375\244\232BV\177\277\274\022\354\203\257C\305?\272\242\006$5)\240?\301\346\364\340%\335\221?\212\304\341*\217s\252?\221\236\251\324w\350\210?-\331\226\320\265o\205\277\026b|?\256a\262\277\001\272\240\311\271\023\265\277X\032\2726\363\376\251\277\353K\3144\312\254\314?\006\267\005\322\005A\250\277<|\320\344\327\202\261?\271\003\232\033{\004\231?\206}3\344?\326\234?\204F|o\331vv\277\221\t\300\266\020\276\235?\217W/\230^\341\253\277~\200\265\374q&\221\277v\222\256\246\210\307\274\277\273^|\376C\355\245?\223\277\233\356\021\341\303\277\022\252o\301\251$\241?_U\260F\007R\240?\270[oi\215\371\301?:?\365a1\201\246?\275\233Q]\004\320\300?\001\203T\327?\316\252?\205} \263$)\255\277\230\330T\354{\213\177\277\203h/\315\252\212\323\277/\003\021\261\026\215\276?z\2628q\247$\236?\251\231Z\234\374\217\256\277,\233#`!\005\311?d\223n0\177\035\264\277q\334\240\205Qd\250\277\r\311Ao\236\021\262\277\373VR\267\312\313\261\277\244\242\023\225\316,\206\277\032i\003\317\304\rZ\277\031:\001\026\337\255\323\277\370v\237\253\375A\253\277RX\352\364Gv\304?\2147/,\261\365t?l_\240,\336\357\320?\234\304+\215\272\212\270\277\277/4\215\353\235\250?\267\346\273\302;\241\301\277\201\240\322\003\330\024p\277(\356\242Gz\370\265\277^\234\246\214\347\001\252\277\245L\247\021\301\005\221?\007Od\377E\202u?\242\010X\200C\275\262?\271(\007\371\010\244\242\277\310k\237\327=G\262\277\203m9\306\331\333\300\277\251\321\261a\234\024\227\277\266\327R\365\201x\202\277\213\250\233\3446\372\271?\315A\354^cS\260?\2470\243\356\377\252\260\277\315\231tR\211m\266?\3353\326t\205\233\306?\350\200\363\023\221f\303?\252<_\035XY\325\277\276W\301\016\250\270\265?\036\307\277\025\000\032\315\277\364\014\207\317\214\013\263\277\255\353+\3077\315\261?\316\217\016\307\017\302n?\260#8w\362Y\205?/K\224\237\315\332\255\277\036@\213f\377nM?4KH\022\017^\302?\203\257\2610@\320\220\277.\366\316\351\210\261\236\2778\306\226\315\021\304\231\277\236ah\030\030|\257?l\270\210oO\375\275?\220\247\226\342(\267\275?\227\006\035\004\032\n\231?\213F\276\351\240\362\234\277\333\336\313\321\267\270\255?!\0051\206\253\341\242\277\350\007|\352\\\356\310?5\327\213\200n\273\241?\261?\004\025!\254%\277\332\201\002\270\266\\\242?\276OZf\371\023\223\277\242\023\275.S\336\300?%\351\003\327@u\256?\220\337\345\276\010\244\301?\355\227\372f\000\013\271\277:\242\242\366V1k?\306\016\346\362\301T\276\277\374\316\277\004mh\273?A\347\346\247\007O\263?\"3\216n,\263\254\277\323\230\316\345t\307\264?Q\265.\230\346E\321\277\371\214\252T@\324\262\277xwS\252\234cp?;\nH\336\326\005\276?}\367L\303\375\203\256?L\226{7^>\275?\005\002\202\264\216\375\305\277\2765\037\265B\274\222?\021\206\305\035\377>\263\277\207\261\234\213\377\245\225\277KY\347(\357\222\267?\255\202\013\021\n\220\266\277\'\377\245\306\331\351\244\277\241\327!\3446HY?\312\265e\356%d\301?7iu\227\311\252\245?\334\205bSO\335\234?t ma\036\026\306\277\255s^\277W\236\300?w\327\254\306BN\217?7\343|\371aN\225\277\342\024T\204u\247\202\277k\240\013\372;\375\246?\231s\033FDFk\277\344\320k\211\222Y\304?R\226\303\001\370\216\301?gN\204(wA\254\2772dR\335\207\243\255\277|>\n1\212o\271?\204\231\213\020\3353\257?P\224]\363\3105\263\277\337\224Y\242\320\207\267?o\224\262u\343r\321\277cq\333\223(\302\255\277\r\342hc\033\226\300?\317\024\265\240f\307\261\277\252-\210^\212\217\247\277Y\327\251\257\2556\274?oS\013\232\331\025\272?\267\027\206\002K\200\246?\225\030\t\205\211 \220?[:\344,\255\036\234\277@UU\200#\234\266\277\317\3157\200i\243\261\277W\2770\026\224-\267\277\211\007J%\371\207\233?\212R\245\275\320A\251?\235w\032\322\315u^\277\221e\241a)\231\247\277\314\346\254\337Ee\315?\222WF.dG\256\277\217\353\341\266\300\344\272?\341\373\211:7N\220?\0378t\327n\331\273\277~\\\022Z64\266\2779\231\271\376\365\307\274?d\361\206\350\367\243\234?\2124^T\005\354\273?\367\215\310\221\267\276\300?\212\326\251U\260\021\272\277\306\230D\225\020{\267?Gc\210\207\224\342\261?\371\037b\005X\274\270?.\224K\253\014:\307\277\326]\354\314Rb\177\277T\310@.\232-\267?\r\363\253ejn:\277r\366&\212\240\177\275\277\377r\354K\314\220\275?9\366\361u\222Z\245?\273\351\203\241\326\233\300\277\326b`U\366\336\247?v\337M\024hP\221?\306+\216(\330C\271\277z|\234A\325\347\242?\323\3622vy\345\222\277)M\030\203\"\267\242?\262\300\250\004\204\371\266\2777\213qT\261}\273?\241\263\326\375\"2\245\277\377S\301:\3010\323\277\367\005\352M\031\335\304?\324\363nZZ\305\226?\350\252Z\237v\350\311?N\254\035\3507\345\323?\356\005il\336\026\303\277\262\372\353t\261Y\274?\213\'e^F\277\254?\277\016y\004>E\243?\277\223\334\307\210Y$?d\351\303\'y\177\254?\257\240\365\270\257\261\306\277\307\260\351\214\275\206\264\277\213\256\017\354\205+\265?Pn\025 \032\360\321\277li\350\016\'\353\271\277\267\217<J4\025\274?y\335?\006Ay\226?>\266q\373\237U\246?\\\235\027\006:\033\226\2776<C\\\020_\246?(@\017\206\213\240\274?Br\240\377\003/\271\277?(L@)[\262?\322>W\342\';\313?\\\0177\230\366\341\303\277\242P,\025\0035\213?n\234ob\305\350\225\277\261\301s\310\002\225\265\277{\270\374A\014ip\277\377o\251j>%\242?\036\031t\214(\371\312?\2455Qu\2026\315\277\021\317{E\234\243\217?~-\237\036;\232\244\277\255\243\203\266\353k\264?\254\022+\306\356\201\231?e\033\026i\031\031\221\277\006\206\021\345\305\304\244\277u\036\313\206;r\256\277q\"\377\335\t-\243?\031\214\210\256\221\225\265?\372\276\240\354w\225\272?=\205Z\326\242n\241?)\326c9\347\032S\277k\337\347\223\357\004\312?\037\230\334\344\223\r?\277\244\013\300\204\204\000\260?\t\272\242\326Kv\315\277\311\373\272\323\360e\230?\005\317\210N\232S\276?X\023n\242\222l\256?\237\267]\221\243\311\304?\004\275\027\276\276\221\273\277\343\276\377\361\027E\257?]f\231\376\353;\264\2776\221\233\r\'\335\207\277\235\032x\336\221\320\241?\23071\252US\260\277\177\312\031\277\327\333\303\277\2777\222\2125\032\301?.\316\227)\336q\232?\367\206p\014\"P\223\277\177\"\344\256\017}\220?\307\271\333\275ka\252?\274\222\235I6c\266\277\234Y\007\372\252H\255?M\0224w)e\253?\201\256\n\200\"\222\255?@%\333\\l;\272\277\377zp\206w\353\320\277#\361M\316\217\321\216\277!\017+\032\355\257\306? \005\001\3272\225\275?\2114\346<\263\216\267\277\276\037z\331JB\250\277\002\217\263:\204\305\256?\014\003Z0)\251\235?\270oc`\007\347\274\277\332\322\273\027\252O\270?\210I\366\263\2212n\277Q\330\261\310\331\244\303\277p\030\332]\035\235`?\200\231\306\355\302\210\245\277!\202;\032Q\252\315?o\226\315\242\202f\261?\2657\224m\'\222\270\277\210S\230.\300\253\262?R\375\245=l\033\317\277yltB2h\252\277\226\364\025\200~\000\274?aJ\\\3371L\270?\334\210y\225m\256\226?\274\004\200V)\010\247?_)`\220\354\031\251?=\240\316\334\235\027\260?\360\372\3478\024\224\265\277\221X6Y\334\343\302\277\000\237\242\021ih\243?\245\343\013\202\210\322\232?\350\342X\'\230\276\271?\310\235\002dy\231\212?\235\034R\215Ud\321\277\257%\3442/\203y\277R\025V_\023z\277?\233\2215Y_\360\276\277\326\014\336;\244\216\237?2#\200\035z\370\270\277\275\034*\204\220O\231?}\207\327\371\n\034\306\277\375\241\245-&\254\241?4\215Rh8)\263?x\260\251\th\\\303?\006\267=XZ\007\240\277-\313D\273\310\373\303\277cG\224\303@\263\254\277\363(\373\351\014\314\237?[\321AwnW\260?\307\267\227v\037?\247?<\367E\n\353b\304?H\317Gn\030>\272?\r\214\357\0311\242\303?H\005.\341\032\003\302\277\232\304\355\220B\005\276?h\257\nhs@\250?\213\202_\312K\'\230?d\2202O\200\202w?\344\357\254E\206\254\263\277c\221?\353\rp\233\2779_B\351I$\310\277\005\251\276\371\231c\272?&\226n\327\250\265\240\2772\005\203\001\366\320\304?\300M\030q\3174\277?\357\237\372\231\232(\237?\340\0362\364\342\003\226\277i;\327\264\215\334\272?\263|\276\234\370\211\320?T\3042f\210\371\305?\330\233b\\W\253\232\277\n\342\247\343\374F|?6\274G@\250\373\245\277l?\030\305#\202\305\277\352@\242\241\2407\270?N\314\355A\237\214\212\277\370p\347HH\377\262?\373\242\330\0368,\266?7y\003\303+\206\264?\360A\233\354#,\303?\201VM\007\264\334\275?\200\017\370Q\337\211\265?\251\363\005\3708V\303?\205\002\004\204\244\374\234?\245\312\316nQ@\265?)\004\303\227\033 \322\277\211\241\342A\377L\266\277s\356\315Y\372\245\267?\2433\027\207\371,\201\277\273\311!{\212\"\316\277\267g\032\315(`\234\277\303\313\273\177b:~?kW8\324\237\267|\277/H.\321Fx\252?\003\304W\225\007\335P?\3163\026F\315\333\270\277\355\245\252\2662\003\302\277.r~\000\254\017\261\277;\371\314s#\010\271\277\362\275\204\342T\307\333\277\'\247\366\224o{\301\277q\002 \255($\267?\265\265P?*\'\260\277\377\302jS\032\n\322?\251\223R\2659\232\226\2770\307\341\027\002\347y\277\320\tgy\\\311\220\277;7\212-\215I\274\277e\315\305P\353\336\230\277F\304\365z\277\362\262\277U\252\252\233\203\336\252\277\025F,\014\274\177\264?\312Rd1\251\236\242\277\r\215r\333\350\313\321?9\231\366\263\030\306\262\277\325(2\356\013\227\206\277\266J\340wP\023\262\2778pC\0245R\206?\254\362\241\371\263\354\253?\230UB\232\311\347\267\277I\024\337\300\021x\273\277X]0c?\271\312\277=\357\234\334\221\020\213?\337w&\301\324\006\261\2779\242\026\355]\000\203\277\252TC\034\014\305\256\277\272[\344\352\273\340\300\277\200\332\024\232\332\031\234\277\007\266\272\374\244\242\253?\360\026\020\213\371J\242\277\023\212\007%\\\326\331\277^\322\355\275\3056\260?\273\325{)\361u\242?F\351<,\025\021\265?x\305K\246\326\213\262\277\225\333\272\277lA\216?\225F\215\222\340\244\255\277k3\275\034\037\351\245?\233\320\031d\205\246\217?\272\234Y@\345\302\246?\274j\200\033,\315\260\277l1\202[Sg\307?\240\207\320fHf\255?\242\256IW\307\357\260?%\306\325\177\023\275\305? \355_W\245\335\277\277O\025\334\'\226\242\263\277D;\226\244M\003\270?\237\333\377\010L\325\271?\217\010\265\225\351\212\244\277\327\353k\2209\346\275\277,&e<\266^\211\277\263\000\341\353d\231\263\277A\322\373\375\026l\256?\242}\250t\345\265\235?\274\023\021\340_\360\270?oQ\315\346w\247\264\277=\231-\n\267?\272?7\323\305\217\022\177\254?\177\333\312{\302\277\311\277\275\226\227\304\362\252\240\277\370U\356_\363E\250\277\335\036G0\2465\207?k\354\351\tam\254\277u\220v\257\313\250\217\277\017\0016k,\264\213\277\220F\257\304ft\325?5\254\014\204\302z\261?\352|\273\341\224y\305?\306\225c\3656\027\304?\364M\324\222<\357\263\277\025H\366~\020O\314\277i\367\257n\275%\325\277O\256\204Md\363\307?(\0231\256;U\266?\302S\354`\3778\301\277,\237\271\217\361\342\261\277\323\000L\216W\005\303?\230\034G\252\346\235\235?\247M\223HI`d?\350\301\024\363#y\327?D\223Cj!\004\262\277\031\306\265\013\210\261\252?\202\330|\341\221\260\256?\352T\245bEo\254?}.Ihx\377\205?G\331\304\272)I\322?\023/I\327(\003\256\277z\024\352;|16?\2357([\310\324\315\277[\300\346/\2630\257\277\231\366\'d\305\002\310\277\211\246\'i\337RR?v+n/\316\243X\277\031\213\375s\261\357\272?\204\256p\373[)\242\277Q_\241\332\245c\267\277\347\257\321p\350\247\300\277\255\267\271\300HLa??pK\024sI\226\277\251\354\346\274\237\366\311?\230\223s\332\340\351\210\277; \036\021\352\021\242?j\215;4\377\326\261?k\030\035\036\302*\245\277\321\373t\305\266)\215?,2\033_\222\005\271?L\236DB~\257\216\277\341\237\234\342N\337\273?\216\314a\214\213\\\235?z~\347\201\020\315\260\277\022cS\323\342\273\311?\177\374\361\025\304\340\215?\324o\0270.3\257\277\370\252\360\250\227\013\276\277\367\220S\316\021t\302?yG\022@s!\236?\374\375\244\3125\'\300\277\215\036\305\375M\362\266\277\321? \033\320\327\212\2770\231\251v\031i\261\277\355I\356\223\262q\252?_\2361\246\216\200\251\277S\363G\357\'\005\246?\267#\204$\211\333\224\277\347p\033wA\337\304\277H\026\230Q\217\017\242\277\n\312i^\375j\304?M.A\344>\006\242?\327\270\265\364\325\023\321\277\342A\341\243N\200\232\277\034\001!y\002q\247?V\244\253\305\003\340\321\277yAM\0273[\273?d\204\236fw\304\300\2774\242u\261\306\237\242?\013Kg\304{\360\251?l\251\334\024\323U\226?\236Xt+h\233\276\277\306:\322\014`\340\262\2774\220.b\272\000\264\277\217\312Z\276\257L\262?\207\220S\020\320g\312?\262\230\036\237\010H\245?\006M\027`\377\352\271\277[\2450t3\026\263\277\247\374[+\351\251\310\277N\350\2279\003\343\261?\341\345\331\353\024k\254\277\222`U\024\370\025\243?tF*\2267\360\276\277W>\363\256\027\240\266\277\220=Rg\316,\260\277\276`xmj\335\223?P\250N\247\2468\202?L\263i\240\216\345\270?\346e\242\275ba\256\277[\210JY/\005\270\277\'\262d\351\030T\216?r\026D\025u\341\265\277\201\256\371Cx\250\226\277\220\216\0039\023k\250\277f\262\261\227.\211\225\277F\270\300\371\325q\263\277\203\206\277B\201\n\304\277\021\005P>aT\271?)\355P\346\370\246\207\277V\020\356!\363\225\243?\003\225\337m\262xY\277\216w3T\020\350\227?\267\237\354\t@\254\231?\350\031f\240if\277?Al~\276\347h\250?\315M\013L\031\'\315\277\305\t\222\212\2220\274\277w\331E\336\336\254\241?z\203\330\204\000\202\265\277w\017\272\303V\241\272\277m\226D\346\3727Y?,\3566\354&\010\240\277\010\216\337\252\245\\\252?G\3038\216\224\364\224?\367\221#\307\307\275\274\277\234\251\212\366~\240\267?\250\364\251Hi\213\263?\030\221\375\013\374\234\310?]\213#\314>o\257?&,\232\222\2617\225?\273huH(nk\277\335\202\337(\3040\264\277\314\367e\264\\ \301?!\025\321\016\331U\242\277\201\025\335\0215K\304?i\371\001\256u;\260\277,\201`\250x\016\250?\316D\224--\346\216\277^\336\r%MS\300\277H\3479\366\265\301\250?\265\317w\274\3059\267\277WhGr\372\255\244?\372\217U\224\370\361\276?B\310I\\\210\233\215\277\201\332\2748--\263\277y\006\362\227\216\230\234\277@:\005`\252\355\246?B\t\0238Wa\264?\334\021]\273\241\243\261?f\212\264O\311u\234?\237\243\203M;\361\262\277\224d\273iz\351\242?K\374%\365v\334\220\277\372\037\345U\222G\276\277\376\350d\024\177y\250\277O+\224J[\361\265\277\370G|\275\350\352\227?\220\335y\010\363\321\301\277g}\033\006bt\242\277E\016\032\243\357\030\300?\312\037\235\301U\034\257\277?\324\033\325z\253\260?\251\375\302M\212\317\312\277\220\340jR\241\314\241?\364)tZ\t\234\302?eI\270\373\204\316\305?=\202\030\263\016L\267?\373\2757\025\204\345\260?\202\346\330\376j\005\320\277?\377\023\007/\245r\277\332x\307s|\264q\277\266\251\364\254\204\242\257?k\036K\326\361D\247?\"0L \310\346\277\277e\257\020b\367vn?\231\375v?\026T\205\277g\226\203HL\306\254?\266\371.?\027\202l\277*;;\020\311\350\212\277\230:\230\331_\030\311?\356\271\032[\0103\240?\r*B\337\354a\267\277\243\2142N-f\257\277{\3711\312\206\235\301?QI\367l\212\214\234\277/\023\006\256.#\300?s\305\271\306\234\233\241\277p\263w\363\336|\241\277\335\266O\330\306\003\236\277z\353\375G\016\214\232\277\200p\274\323l{\304?\017\317\262\241\364m\260?\002\257\252{\004\227\275?X\017\220)\320\033\302?\026QU|\214\005\261?\361\314\362\214\314\235y?0\237\263\300\024\"\234?\327\260L+/\035\323?\247\001\206\364hZ\274\2771M\213\320\306\372\261?\342\312\024V\032v\304\277\340\226\r\246d\357\202?\367U\313(\300l\230\277\263\330\332\206\345\377\243?\344W-F\025\246\221\277\200\036\241g\234f\244\277\307$\026w{\030\264?<\250jW\3616\231\277\250\3414\315\"\276\272\277\256\336R\373\317\367\305?\304k@U\2543\270?\316\236W\001\372W\212\277\246\026\005\022\2341\215?h\275F\034\307\255\316\277g\357q\312\021\252b\277OV1\274\320\276}?\034\260\375b\335:\221?\023\273*!2\266\270?\013\264\214\234\251Mg\277\373\016\354\340\217\321\217?\'\034\377e\027\027\267\277CX\021kU\013\322\277\230U\200\001\254\267\301?\337\337|\275\226\212\254\277\004\327$\265FS\311?\216\212\305?\305\222\251?D/\335\264g\033\233\277xK\371{\272\205\267\277\231\252O^\366p\240?\235\177\025\360\375\250\200\277h\261*\016]\231\245\277\207\356\255\206b\014\250?\004:\363\266\351x\321?\243\340D\341LQ\272?\025V\n\024h\325\262\277\243\'E\310\017]\303?2`_\014\236H\274\277\230tS\262\3504\243\277S*\002\202\253K\223?[.|\023\010\021\250\277\310\220\005\204\214\274\274\277%=\013Jz\013\241\277\260\217\353\356o\234\274?mR\256\233\nT\274\277\267\314\376h\214~\227\277\3306\363\300\345\234\225\277t\300P\273\305\017\325?\023\263\210\312\221\000\265\277rQ\334\027sy\217?)\r\354/\225M\267\277QG\367P\312=\306?\216\301\235\357\242p\265?\257\t\342\277\214\354\262\277),)\237<g\251?\232-}\017\256\233\244\277\303\306\"\363/\237\254\277\227~\312\200s \262\277\370\3119x\033\242\251\277\333\300k\242i\367\217?>\\2X8X\275\277\310\371^\270\241s\304?\353\327.\337\0209\251?\231\320<=\006o0?\034P\354M\217\376\301\277\371\270\301\230\032\320\267?\3531|\236\031n\230\277\003\227\020\363\202Z\300?\204\2751\321\032\243\320?\306\213$vNc\253?\3515\007Tm~s?\023G\212\031\216V\274\277b\003t\tu\022\320\277<\034q#\210{\260\277\253\313\303En\037\246\277\252\010-\265\024\'\277?\242\352\202\307\221+\254\277\212\350m\304U\263\266\277\262\324b MM\312?\304\374\301\310\323\214\226?\311~\2669\242\362\262\277\373\345\032\036\240\205\256\277\213s\311_\316\014\260?\016\312\311\037sz\255\277\263\205\316\211\222\212\301\277%\236\210\n\351/\266\277\347A\235\3416\243n\277\202\332&\214St\274?j\031K\372z<\240\277<\304[\231\262z\255\277\265\003v~\243\356\201\277`.)\000\273\244\221\277\\\350\366\227Y\212q?$?\323\301\322\236\244\277/s\016t\346\037\276?D\304{`;\250\257?\375\2467\346\212\000\272\277\230p\376j\036bv\277nD\314\231\271\256\306\277\310#\036`\"$\217?[sD\273\230.u\277\211\034\332d\233a\252\277\246\207\027I\254f\302?\376\260C\212\255-\321\277M\246P\215\017\370\214?wE\320\217\364\303\263\277u\247\357\310\203\332\246\277\235\252[\340\305\030u?\202\247z\373\256\203\266\277\325\026\335P\266.\265\277|\264\334r\240ow?J\351\346\343\370\201\237?\nKPj/[w?\344\311\263\322\323\303\270?-\031fA3\300\252?\241w\356\021\365w\222?_\"\014\240\237\\\257?b\241\323\207d\007\265\277\267\"=\224\361\316\303?\r\007\233i\233=\254?\356\267\013\372/\373\310?\214\320\024C\343\365\224?\227I\377\373\002\265\261\277vU\rr#\226\303\277\372\341O\376\344!\257?(\250\314\332\305\356\240?\230\001\207\214i\323\267\277;\345u6#\216\270?J*\235\0165\004\252\277x\355\344,#\016\305\2778\325\200t\321\203\230\277\217\\\026\365\377\305\274\277\214\253U\372m\253\270\277_\223\223F\032\326\224?\257C\273LQ\201\221?W8\244j4\324\263?$\344v\324h\326\216?\221\200O\223\204\235\243\277\375\357~2\247e\304\277\3239B\350\031\354\277\277\376\261f\032\000}\263?Ss\367\307Pz\274\277\230\274<_\223d\256?2\232\273\341\030:\260?w\241L\035H\256\265\277\206q\247\235\014\256\310\277\3545\305\211\334#\255\277\237\216<~t:\260\277+X\231\305\213\024\313\277\"\321\313\032K\364\224\277\014\020\240>\3055\301?*%\271\000\213E\214\277Wj\357\264\014\020\314?F\200>M\210\375\254?\246X\020\333\3707\227\277\304\253\202\212Uw\267\277\025Mn<e/\265?X\265XN\377H\205?c\3258\260\235n\261?\030\023J\212u@\276\277\rCc\337g8\272\277\243F\334\246\323\271\243\277\242\037\314\335\201\030y\277+0\353}\n\373\275?\205(\221eK|\261\277\250/\213\016\004\260\217?3lc\302\207\375\250\277?\255|\237\330\300\222\277K\374\276\026\022oj?~\r\202\274\t6\302\277\005\343\030\n\014O\244?\343?\373\253\342\376\252?i\037\365\245zQ\243?\362A\302\211\214\377\246\277\325\246g~\332\373\231\277\267C\347%\307D\302?\311\341Q\307\215(\315?\257\'\341\271\326\030\251?v\366Z\177WS}?\\f\316\244\237\361\266\277\034-EB\344\335\246\277\236\002\302\223Y\311\211\277\347\341\361R/\274\266?\225?\230\366/\377\235\277\031N\002\207\256}\215\277\375\t\271\256\034\365\254?\320\205kzs\036\246\277\265\276\r\263\373\267\245?\n>\020\237z!\260\277\261\351\300\212MB\276\277\2205d\333\213Y\251\277qC\310\205\003\r\204?%\322\355O\234\300\301?\007\276\311\251\010\201\323\277\254yQ@dj\221?~\027=\200\355\207\256\277VH:\345@\331\237?\010\317\006\204U&\205?\274\203zJ\233\201\255\277W\303%\342=q\262?\355o\222\276\t;\262?\2205+\3600\037\273\277\347\225\344\037B#\201\277\235\264\231\003F\336\263?\000AD6D\353\317\277=y\223\215\340\nd\277\037~nhb}\245\277\013\277\210\023\357\235\245\277\272\001\235I\331\330\272?\224]\003\315\312Y\223\2774!\231\2453\375\265\277xi\202\202}\322\303?\314bDLA\264\240?=\310AK\233\241\250?\266\017\026M\005!\252\277\277\210\014\220\355`\270?:\357\320%2\336\262?R\372\302[D\347\263\277\341\022\257uO\226\264?.\246v\321P%\234\2772\222U\343\314\324\223?+\262_{\030\007\252\277\341\014^W\345\326\303\277\347f\225\007xl\260\277~\305\355\266s\206\316\2774\204\340\331i)\233\277(m\335\264\006=t\277\235#D\026\270\356\263?wj\013$%\322\232?z\200\240\255SF\271?E/\317\210\213|\215?\266(u5K\363\261\277,\003Tb\2237\262?\230\r\030\304Hw\261\277\311fj\034\362\212\242?\302K\354\305-KV?\'\2063\322\367\026\240?\232\0137V0\022\214\277\230z\250\230\213\213\262\277\265\211\302\253#p\312\277U\365\027\262\241u\275\277\336\343Lb\302\205p?\031\')us\010\261?\260s\301I\340)\300?\\\250\032\310U~\223\277\317\304T\300Z\316\260?r\303\342\236\3217H?\203s\005\300\235\005\260\2773c+):\007\242\277\005\314\362\302w9\222?C\350\202\324\262\025\201?\016\235$\324\244\272\261\277\322}\014J?\314\302?`\321\203\203\t\204\310?2\244\243\370\324+\250\277\347\342\320a\364\341\221\277\230\023\305\033\321\337\264?$Y\263g~\363\314?\265\251\010f\231`\251?\200M\234\267h\033\250?\260{V1(\346\302? _g\024\005\216\254\277\272B\373o\364\274\251\277\217\016\n\033k\376\300\277\200+d\027\024\260\262?\354~\261\267\340\361=\277c\036\023yA\200\236\2770\244{\202\250\r\273\277\347.\014\r{\232\253\277\013\204\313m\301\250\311?\004\366\342k\311\005\200?\313xY.\346n\263\277hp\277\035p\000\262?\335\201\367\210\211\312\250?\342\370i\243\331T\256?\356\234\t\023\360\246\255?9\220\315tM.\231\277jpNA\372k\306?\025\331\206\347kW\272\277U\314\337\250\225 \261\277w\305m\213h\201\260?\374\312\307\2049\242w?|\357\310\252\177\373\272\277\263q\010\245\266\236\244?\214\252\234\000\223\322u?m\274\036\216\354\376~\277 \324\270%\037\340\257\277\265\363\245T\357\004\257\277V\375\345\223I\305\266?9X\324\372\306Y\277\277M\322gpya\237?\313\272t\365\366J\322\277\027j\366T\224\250\202\277\354U\255\307\217\r\235\277\316\232\305\026\nw\303?\331\026\204Q\241\031\251?TR(5\354\353\277?\210b\354\320\266J\256\277c\334\332\377\340\231\266?t/\033\267\023R\275\277\021\013!\314\221W\275?\345\254\311\212\024\013\260?\304\362\363\220B%\265\277P`\322r\263\242\277? yX\373xn\314\277S\177Q\325>;\310?\253^y\006\203\263\300\277\342GX\032|\306\214?/9\026)5\001\266\277Jc\210\203-\303\220\277[\3137\207K7\274?H\207L\306\005\024\226\277\263\335\211\200\354\203\214?\273!=\366\346r\257\277\202y\207\355\347^\250\277\246\227\\\362A\023\300\277EX\036\036<\371\251\277\303\356\306\321\010\215]\277\221\365\331\342+\262\262?H\220\016t@f\220\277,%\316\346\017\345\260?\027\217\252J\330\271\264\277\221\350a\300\"-\276?3\226\347B:\035\321\277U\2540y[\345\252\277&[\226}w\304\271\277\266$\275\225\225\001k?\300\n\364\327\335\304\306?an\030\'\351f\260?le\020\324\2000\222?\232e\024j\307\263\302\277g~\322\326\240J\264\277e\t\205-S\311\250\277FG\227\353ch\272?\224\265_y(R\306?.=\236\220\213\217\177?\231\314\376\273\377N\221\277\261\275\220\273\3247\262?\351\216p\0211\035\263?\r\271.K\020\232\237?x.\221\2332k\266?\367\335g\252\362\330\224?c\262{\006VV\254\277\247\177\261C[q\267\277\261O\000\241S\304\246?\033aQ\334\334\006\270?\"0]Npno?\323\376\304\264\336\022\242?\367>.\177\203z\305\277\237r\214\276\2416\243?\360,{\340\371\351\231\277\211%\005t\017\024\305\277\251\004L\375\326!\233?\275\".\231W\030\262?c\270=\355\256F\253?!\241d\335\217\231\241\277u]d\261\300\237\267\277\261@`\270\027\007\247\277\360S6\233z\243\217?\ni\215o\232\215\254\277\006s{\n\3034\272?\254\315\231\010N\"\276\277\375\\>t\033\316\311?F\260\3313\355+\221\277\306\352\026\357\251\234\260\277Ej\263\242@\204\245\277\273\210\332#\203\010\222?U;\362\002\327\t\271\277\026\343\036\225T\237\263?\315x\237\232\201\341\311\277\372\327\254\370\344\026\256?\2749\341\231\323\264\257?\007\256\321)!\027\262?\022\265\331\343\032\033\274\277\025\355%]\346\374\261\277s\030\303\243\304\014\301?\017\002\270\346_\211\271\277\227D\306\263\312j\264\277,4G\264u\247\256\277H\230\252\334=B\253?\314\345\001\024\023i\230?x\360\374\323/p\212?\003W,]\313\270\270\277w\024!e\3327\262?v)\217\323\326\352\302\277%4Vo\220\342\245\277U\323\222F\211\254\317?\361W\344\214\324K\232?y\224\216^c\351\270?,c\013\271\3127\271\277\366\263\034\356bv\275\277\000L\272\t\277\315\227\277\353\302\\\'8\226\271?1\342\004\r1b\323\277 \226\270<\"\231\217?Y Q\007\375\235\222\277\326\\\014\'\033\202\272?\341f\374\236\275\202j\2776\246%\214\355<J\277\354\001\266 \371\334\276\2772\3529\306\225~\306?\315\004;\007\005I{\277\262\225\326\276\225\005\273\277\312\033\301\327\007\307\260?\000\325\026C\252\014\277\277SC\3420\324\233\243\277\323\304Z&\373\357\303?\274~E\307\364-y\277\'\276\341\306\3647\320\277\325\315\260\224{\260\233\277\310\0144\271Q#\213\277\270\177\352%\002\266\242\277\370\206g\204lI\250\277\027\024\272X\334h\251\277]\267`\037(\233\321\277\300O1\000%\037\260\277\327l\204\320F\357\260?(\001?\261t\266\322?\272\027F\331\372\234S\277\274\325\374G\333f\271\277\227(\350/\347\303\262\277C\307L@$\336\302\277Y\300x\307,\355\301?\364e\010\377)\033.?\026\373\360\271\215\323j?\225\375\327\301`|\320?\253\362\377\221\367E\251?\201r{\344\232\225\300?\227@\357\243s\014\322\277E\344\365\306\376S\303?D\224\360\202YJ\261\277\256\363\265\0322\257\257\277\344\347\235\2553\306\233\277\215\311\2412\206h\212\277\243O\244\275\355h\244?\221\260\367I\220\363\313?\276\030\252\246U\241d?\271\224\032\377\334r\203\277+\214\332\366\200b\273?\032\000\240\211a\256Y?\010\303\246*\224E\253\277L\207\256Y\225\231\220?-\017\371?\361\013z\277>Go\300\003\377\262\277\245\016#\253\037R\303\277\025\300\377\210\237\222\276?N\305\321\r&\361\212?$\267\246K\255\035\242?9\017\323\256\265\243\272?\232\3452\021\361\014\260\277A\304f\227\213\367w\277q\247\014\356\031\204\300?~\324\307\351\215&z?\025\224r\230\341\307\321\277\310\0329s\231\273\244\277Ox\357\216\030\267\237?F\342\244\345T\271\267?oN\3519\223\\\227\277\000\003%\036\0065\273?\342_=YaN\300\277\214l-\210\016\214\320?\032OE\260\320\222\272\277\216\322\210\241\371q\302?\007$\207n\354<\307?\211\017\262\rDa\263\277\016\253\037\230;\307\212\277U\366C\n\273\332\246?A\224_\364\274\360\233?\240\254A\313\261\360\256\277\323\233T\357\004\216\251?\251~\233\241\377\205\310?z\323\221\3223\335\263?\266K\245\014\367\033\270\277\301zr\265ki\265?\177\210\220\214\371\376\207\277\307\031_l\253\200\266?\335\'t\037\032\374\247\277\311\350\375?\001\275\243\277!:\234\252\207\300\241?\020\255\370\266?\206\244?\222b\267u.\022\271?\016\376<_H\231\250?4C\242\035\363T\262\277V\351\232Z\211\364\244\277:\254Y2\322\201\243?:\374\026\250*w\272?\236X<@\000a\270\277\310VH \356\014\302?<\346\353\177\206/\312\277\"\033\373?^\263\221\277\200\360\311\262\240p\304?\335\0071\257\227\216\261?-\260\314\271S\253\324\277\214\372\006\313\217C\232\277\030\326\232\3520\305\240?7\274\213\225\306A\257?fRis\201,\242?\306\030\356\2501\304\263\277`\342\027\024\314\307\322\277l`\2420\261\030\271??<\341\300\203\261R?\306\332l\034\324\244\272\277\310@\364C\034\266\274?\316\336\305\363+\001\261\277\276\016At\036$\246?\026c(\025\n\373\260\2770\322<C\222\352\234?\014\021\235-k\343\254?\220\017\010\340\272z\274\277\365\324\323\252\255\021\263\277a\'m\310<o\235\277\327\027\267\315\236%\210?\236\306\267\266\214&\302?\005\274\344\361f\212\247\277^H\000\315^\305\264?$\003\237\030\2769\237\277\037\024\003lgi\276\277q\255\354\235\016*\247?\250\205Cm\333\274\225\277\247\202t\275,Q\247\277\357@\020\247\220<\245\277\377hT\020l\307\211?%\006\222|\025d\230?\334\224\343g\016*\310\277\273\223<Q\262t\274\277\255\333\211I\374\350\226?!\231\003!\327w\306\277\227\231\355\225\274\216\270\277\270\014v\336\324\031\224?0\321\2524v\206m?h_H\314\232\217\310?\356\216\210pa\260\201\277;\212\177\262\264\242\262\277\272\265\251\277O\304\302?\242\2204\316Fd\302?\200\255\244\261}q\243\277=v\256\377\261*\206?+\342`\177\010v\331\277g\203<\347y6\253\277\343!\024|\236\330\216?\317\256\341-\374\013\201\277\021\\\350I\332v\247?\000\215Xe|\026\261?\241C\230u\006\006\227\277t\236a\005\r\223\313?\347f2\231\352\234\264\277\350\226\261\3157\325\264?\256\023\355\031\2423\253\277\216\275\203G\232\210\260\277\225<\341\335\2712\270\277\361\265a\303H\353\275?(i\350\010L\362\301\277\273k\324q\253\335\263\277WB^\305\016\200\246\277\222?\030\322=\216\260?\213$\323\r\342\026\236?\250R_\271\254.o?\251\304\230W=(\312\2772\022\273\346\335\204\300?.\006N\032\'\232\271\277\274R\360\306\031@\270?\357\371J\204%\255\030\277uNL\004\367\322\260?\263\307\316\276\007s\200\277\301\326X\374}#\235\277._\266%\034\334\316\277#7\356\261\351_p\277\0239\177\233\314\311\272\277\306\336?a\340n\254\277\304A\203lB\265\276\277\t\266\004\214G\301\276?zRs\233A\'\322?\374\367IB\265\344Q?\261\374+\367E\262\206?\255F\217\312D\210\215?~\235\002\353\031C\222?<\270\334A/k\244?Gy\201\203\036\377\245\277L)[<\323\302U\277G>Y\336!%\310\277\264\222\327\0363\r\266\277*\257\024c\363\351\320?\224N\332>\362\243\267\2774\243\'\210I\225\263\277\315P\032\211\313\310{\277\247\202\235\031\364\327\242\277\224\315j\274\3628\222\277\340Q \014\206\327\215\277\'=\3638\325\272\320?\272\010t\\\206\"\311?\371\356\231\3072\"\223\277\001\320\205N}O\255?\000\017\376\025h\327\265\277G\265\t\266\2216h?\343\312\260\372\245\304\272?\356#\014\002\264\006\250?\255M@Y\243\206\322\277\253#\324 \303m\260?m\024\005\375\033\200\241\277\350+\201\277H\207\266?(\243\314\346v\356\276?\333\2141R4)\267?\336\347\353\220\266v\301?gC[\222\224d\273?Q\304\241\210\n|\264?\243\316L~\271\034\302\277\264\212\304\253\274\256\242?F\311F\177XY\305?\204\307\262\\\205S\233\277J\243\001+H\326\261\277\244s\340+\367\370\272\277q\0133\322\006\314\260?\334\263t\364\317\324\301?\022\265\214dp\316\225\277\364z\336\325\244\303\252?\'\030\315\272n\"\260?Z\276\236\000\365_\266?\3732L\352A\214\317\277,\235M3\301h\265\277$\030\264Q\336~\250\277\347W\277-\213\242\237\277\033\312\3502\235\023\320?F\23147\347\025\251?\272u\311\376\216\256\214?\342/\374\207\254Q\300\277\220\274\307\217\326\327\222?\310\274A\346\2259\242?\357#+\032\202\006\245?:\023l\2721\333\255?#\005B\247=-\247\277~W\177\350\253\263\220?\260\231\223\217\230<\255\277\037\213\264\312>\336\304?Mn\376\213J9\263?\367{~M51\302?\353\247D\243\235\306\326\277\252\363\225\251\320\n\237\277\373\024\245t\372\204\254?\333\376\2555\366Xs\277\233\267\200+\217+\210?\265\263(/L\027\240?\213q\236\221\014S\242?\233\000\200\016\\\220\243\277\271(\004}$\026s\277\230Y\235/\356\014\243?\021m\030\307\213\340\275\277=\037\215\307\357\201\216?\036\272\207\327\344\036\265\277\244\272\275\315\007\206\220?\3449f\264&\256\315\277\360\2315\316\361\007\272?\371\375\366\211Q\177s?n\007\271ib\005\272?\225\323\006H{k\205\277# \017[\240\341\251\277\202\"b$\311\020\263?\302$\352>\343V\307\277\362\027\376\n\033)\242?\351\212q\225)Z\271\277ct.\006k;\303\277E\345\030\254F\020\272?\312E\014\323\263f\213\277\006G\333\030\274\320\260\277\341\346\025\013GS\245?[W\247\013?v\273\277;\016\217\010\227I\273\277\016UCx,\262\310\277\024\222\330\351\313:\307?@ju\227\322T\271?\022K\013\0348\371\300\277\262\0045\326\203\311\220\277jb\251\342R\353\241\277\353\243\262\250\374]\266?\255|\210g=9\230\277**2\313\234\317\300\277\311\312\205\222\206v\272?A\\\361\024\003\005\217?\271y\260[\211\266\255?\212EVd5\322\305?\000\257{\370W.\251?nB\255\304\221\265\266?@`Q\202g\260w?T\246\357\010\304\034p\277\016\342\202;\275\377\301\277\31517\273L\200\251?I\274yN\3727}?\252\272\333\'\342\215\242\277\254X\234\312ly\270\277\201\300ZL\354\320\273\277*\355,w@Ai?`\202\371\033J\323\243\277cs>\355\253\311\310\277\010\263}sBm\266\277\272N\r\335/2\307?\200\251\343!\274\311\312?\313\215w#|K\231\277\342\213aV4\326\260\277jBEYj\005\302\277\032Pb1\201\226\304?\247M7\000\014W\210\277\034\305\376qc\317p\277S\312\360\031\010\370\300\277\262\206>#~\277\276?\370{\264\205\335\261\263\277\347\306G\r\202C\250?\222A\354\346\317\006\306\277\276\216$\253?.\210?1\242\367^\257Z\305\277\372\016\313\027M\221\272\277\325h\331\266\2762\220?\024e\354\315\267E\271?\327\370&3\2153\277\277\257%\314\330g\007\307\277\027\350\371\276 n\230\277\273\340\277\240A4\315\277j\240\361\233\234\264\300?\360*x\204\361:\270\277\274\303ms\361\306|\277\370\222\324\037\310\255\321?`T\017\244\225\270\256?\321s\301\337.\222\262?\026<[\301\243\276\261\277\306\037\326\272\3452\303\277\205\267bD\203~\225?\013\224T\214g_\245?\023\013\246\326Mo\302?\316k\223\324\032>\251?C\333\346\351Q\025\264\277\257K\n\203\\A\303\277c,\345\363\326I\267?1\017\200a\246\346v?O\260\236A\357P\241?5\243\321+(\255\302?}\246\235%\002\327\211\277\314\373\321z\207\206\256?!\033nt\242\326\242?\226\005\307\272V&\276?\220[\261|\247\375\263\277\352\234N:\'\036\307\277~\221\230\346l\r\322?\324\200%`C\341\320\277\200~\263\322\256\250\272?\"]\215Cv.\220?\010\372\275\177\003\344\304?\342\200\244*,,\265?\356\001\305\220\257\223\256\277\273\322X\366t\331\316\277\360c\313\352\356_\263?\265\275{\032\304\334\272\277\346\027\036\353\320\033\301\277\323xC\3624\334\320?\234\004\026[,G\272\277R\214\224\032\010O\300?\337M`)\361\373\273\277{~\325\226A\014\305?\233\316\357PxV\263\277\266\335\n\211J&\321\277\256\226\3528\246?\303?}g\273]2\264\314?\372\376k}\2037K\277@\201\213\321\323\025S\277r\325Y\363\016\037\275?\025^Q-~\271\267\277\031V\214\372\227\000\312?\002\027\251\267\005\205\266?\022J\276\272M\'t\277\035f\016\004\203c\232?\355\225T_)D\317\277y%\2258;\231\264\2774\242\377\001[*\202\277&y\364\323\256K\253\277\213\215qm\331\345\301\277.\363\357\000\336\033\241?\361\3632\263\342{\301?\003\252ZG\275O\233\277\'xf}\3141\273\277\2221\234\331\002\010\302\277\312^\230\006\252a\261\277i\340\203:\320k\325?\301%\367\362\324\215\230?\256-\t2\267\334\237\277=e20\326y\307\277\365\016Aq\231\230\317\277E+s\367\370\254\271?\246\372\331~\204\325\266?\"\224\256I\343\333\306?[0\320\337\026@|\277\315\335\204bl\326\272?\210\241\216c\002\216\200?W\316\273\203\361\335\237\277L\347:\314h \273\277\321s+\030\326\n\275\277\256\240\\R\324\347\321?\330\345\277\204\267\364\300\277\n\262h\323!W\262?\222\257\223%\345R\254?\001C\010\250\260Z\265?\241y)\364\357P\262?\024\3027\251\343>\205\277\241^\363\217*\320r\277\273W\241\310\336P\264?\250\013m \260\243\271\277\342\266\200n\004\'\260?\3637\327\360[1\222?\334\213\211I4\035\234?7\247!\302R\006\310\277\004\222\004\352\003\345\301?\317\241f~\261%\263? \323\010\0265\031\311\277\350*\333Z\215\236\310?\304Q\0333\266\356\261\277\223\203@\003\3324\261?\254\344\356\000x\205\245\277\217\213\367\361\225\333\203?\275\021q\231$>\202\2772\226\233\r\336\346\271\277Q\007\0349\213t\242?E*\307\367\002\254Z?_C\253\377%\024s?\264\2320\276\276\265\257\277\001\346\377\307\243\032n\277~\347\016\350R*\270?\260\254\370\024u1\305\277\343:\n\213TQ\307\277N\002\n\335\321\037\260?\320]&/<t\252?P\355J_\034\337\257?\332|\240\004\211\277\337?\216\270\213K\240N]?\347\226\r\274\200\253\263\277O;\301\300\320N\223?+ \352\342W1\264\2778\350\330q\310>\227?qC\213\254\351\311\271\277\204\231K}\246\262\301?\204-$\333,\257\214\277\032\225\2161\377\212\305\277\r+\275\'x\315\321?N\201Y\223n\267\305?\211\337\037\016\326\027\265?\002\320\352l\344\261\263\277|H\324\304\224R\245\277\223??\267OU\312\277\n(8\035\026 \223\277-\213\"\275\031\027\251\277\262k.9\025\260\304?\206\250,\314\023\212\257\277\202\371Le\254\\\242?\245\266\373\351X\343\323\277\247\267F\320\325V\254?\200\372\332v\206\272\204?;\330\036\203\340\027\273?\375\022\356\254\0132\277?G\362\317Ls\255\213?H\376\373n\377\267\266?dC\024\265\3013\302\277\250U\255\025\327\372\206\277\013\014L\030n\231\247?\242\245rO\226&\206??\354;<\337;\303?\252\267\363\230\031%\242\2775E\3143\314\332\263\277\352\353\266&iB\270?\033\220,Z\300\\\222\277\213\340\3715\225K\303\277\200\216\356>\207\t\265\277\337\020\267\360\275\364\304?\347<AP\315p\272?\301\313\360L\005G\265\277[\204\t\352\302\240\252\277`%w\210yG\260?\335\342]\272\243\250\240?\244\005\023@\262\027\246?\375\346\273\324\'\220\300\277\304\336\247\020\257\262\266?\272\215\216\253\204\241\260?2]\314\213wg\267?X\367l\0302\332\272\277\220N\257\374\244\265\235\277\361\311_\244\273}v?h\330\002\305\205\327\276?\211F\363\322\345C\220?\327\220J\215w\353\260?\3023\347\"\242n\301?k\233\253}@\027\303?\335\255\353;\263;\276\277\007\336w\371i;\265?g\301\000\275b\220\300\277c=\355\366\354#\262?\031\337\225\220\231\322\266\277\361&)\353\354_\263\277Z0\0168\377\t\247?_\010s\214\221\246\300?\\\3668\0136?\253?\315\245\215\252\202\327\302\277\237)\036Z\014d\200\277\235\006\324\322\370\323\220\277\261\356\321\202\240\241\265\277\277E6\343\247\251\231\277\263\367}ky\354\275\277\216yJw#\305\217?\2479>p\3410\313\277\322f\233`\251\254{?\355y\320*\304Z\247?\264\000\333\342\324c\256?\'9-Erd\261?L\\\r\371?\244\266?\214\256K\271\037y\271\277\030\343\2014@\023|\277\202wPRMe\244?\010\343\373\355>\310\261\277\027\326N\031\301\222\234?\337>\3630\203\030\261\277RU\265\3431\247\266\277\333\246\025\346\354\310\273\277\266P\201\307\226\027\261?\232a\001\351\027\202\261?\314B\000\321\'\352\303\277\3262>\241k\267\271?Z\243A\2160\330\302?\"\354S=o\220\263?R\275Z\220D\352\273\277\016\330i\322\032\231\245?xu?\364/\032\200?$\240><\350|\234\277\006\016H\360=\307\301\277H\177\276\217\262\240\245\27791\305\'p\'\213?\322d\227\345eV\261?;\340:\255\332\313\230?\324=x\305\010\367\250\277\301`~\275\034\251\263\277P\335F\002X\376v?\336\360\353M\251\331\277?\3355q\263%\366\265\277\3471\307\031*\025\312?\351+>\300Si\264\277x\377\370\365\270\203\244\277e\345j\214.\023\275\277\221}\320\036o\345\262\277xs\000x\220\031\314?J\274{E\277+\266\277$\010\313\356\363p\277?\352\317\010\201\001\330\305?\303\"\303\311\035Z\262?Ts\220\347\350\013\257\277\031R\216\"\007\353\275\277\206=\313+\365\313\254?\2277\031\276\023\024\263?+\2445b\242\372\301\277\261\301\002\000\270\001\254\277\310\250}\241\261@\254\277\324{\214\213\025c_\277>o\261\3403\367\252\277\324\2226\230\341E\255?M\363q\033\211\353\243\277\034\233\362b \225\251\277\333\311\302\253\237\270\316?_\275\026=\336]\216\277\027\364\034\372\277\256\260?\256\035\235R\213Yn\277/\0175\363\266\204\216?\311\271\304OCQ\273\277!\033+\tU\311\237?\034|\032F\351\234\322\277^\364\373\204R\370\265?\364\026\212\033y\353\272\277\314\034\221\232Cu\202\277D\n\230\\\327\302\273?\343\neD`V\262\277\330\200\263Y4-\205?\250\366Fi\3360\307?\345\361\030\324\220S\300\277\366Tm\227\na\273\277,\323F\341*\204\320?\0012`[\2656\262?\274\242Wl\"\371\242\277\375f\017|{\374\300\277\\6\235\361\274y\252?\374X\3272\333\022\212?\322|rvV8\262\277\366/\324\377\235\022\273?\300\213\017}\244\036\303\277\203\371\342k~\251\261\2776\013\374\302\361\254\243?`\273\367\346\324\312\315\277K\325\353\347\364\020\244?]\224#\267\313Q\221\277\"\3676\240\255\377\324?Yx\255\261\347\205\276\277$.$\366\341\244\201\277\003P\343\327\212\377\243\277\357\376\275(*\240\311?1?\263\203\326\245\241?\237\222\351\261x\310\275\277\007\301]4\264\200\254\277-\375H8\372\026\302\277R\3341\215\003\222\254\277M\363k\t\365\327\273\277\217\002\213\231^\033\275?\232\305H\340\307\226\263?X\002.yF\235\235\277\017\0024\317\253\000\304\277\246_KZ\253\006Z\277o\276\346\205\277\232\300?\235\303\305ce\177\263\277\327T\342\344\263\006\255\277\313\031*\270$\214{?\237\200\202\023\037X\300?2@Pu\312%\272\277o\202pb\253\216\276\277U1R7\324=\274?\311\227\360>`\020\241?97\330\337RX\251?\310N\215\367\016q\244\277\265\271,\312~-\252\277o)\332\007\204T\264\277_6\302wd\336\264\277\376l\233J\347\367\265\277\205wS\030\211\331z\277c\217\214\225\225\235\335?\213_g\026\256\365\256?\275\034c\230\276\375\211\277\303\255\225\224$\354\265\277\230\370i1N\247\272\277x\327\330\0042\343\306\277y\247 6\257\370\246?\234\367\350\3111\320\240\277\307\357?\021\3012\234?\232\376\316\266\203\275\223?\247F\005\252\246T\317?q\\\013lN;\261\277I\022\370\364\030\035u\2770M0\252\350\311\273\277\020c(](\260\303?%D\365\325\014\221\217?aj-\355\2236\225\277\323l\265\224\023\373\265\277\t\206\225\261v\245r?{\0067\021\340*\300\277\215\304v\006\016j\216?\377\214\n\307\332\231\310\277\002\332\247\327\262\207\272?\311t\225=$U\301\277\337\016m\221H0\321\277SN\231+x.\301\277\223\265\206~dA\316?U\342\217~\201\250\333?\237\314\231\230i\364\321\277\251\374\327\313\271n\263\277\007\001H\200T\341\272\277!7\340>_\351\265\277\253\013\210\333\037\265\313\277~{;\210\232m\246?\022\356\213\013\001E\265\277\361\224\242\222\010b\307?E\204\265z\006K\247?\252F0o\377\362\255\277\223 \010 U#\207?Y\267,\037Gy\304\277\351t\275\315}\351\257?\035\235\224\376\300\311\252\277U\211jq\250\320\245?\351Y\221\332h\007\205?\277&\350\223\3479\307\277\327\210\001\350\273=d\277\351_\375\346\266r\241\277\177\314\302b2\005\263?\356s\351\007A\373\273\277\253\311\362\300\250A\222?\306\367\312Ie\216\260?\373\2220\316\355\211\222?\205SL\"\362\320\276?\\{u\215r\370\204?\225yr\306\026\343\254?\3232M\307\322\214\266\277\356\320\216\037\312\257h?|\324\272\254\210iw\277\032\355\344\203 